node {
  name: "dense_input"
  op: "Placeholder"
  attr {
    key: "dtype"
    value {
      type: DT_FLOAT
    }
  }
  attr {
    key: "shape"
    value {
      shape {
        dim {
          size: -1
        }
        dim {
          size: 25
        }
      }
    }
  }
}
node {
  name: "FCN/dense/MatMul/ReadVariableOp/resource"
  op: "Const"
  attr {
    key: "dtype"
    value {
      type: DT_FLOAT
    }
  }
  attr {
    key: "value"
    value {
      tensor {
        dtype: DT_FLOAT
        tensor_shape {
          dim {
            size: 25
          }
          dim {
            size: 64
          }
        }
        tensor_content: "Q\006Q>\371\022\307<9\2223\276\005\261\214<\002p\204\276\214\300I>u\300\304=\351\0136>\332\204\217>D\274\001\276T\233\006>\220q<\276#\311\303\275\264~c\276\246\\\n=\224\366\332<\\\360\331=\020)H\276\007\n\230>\327\325)\2761\021\334=H}\207\276\006-\264\274Ag\251=,\372\372=\017eL\276,\337Q\276_\335d>0o5\275\322Ay\276\342\332Z\275\365v`>\240i\212>\350\312\253\276b4\022=|~\306\272\262\016@<dM\200\275\246\226[<\213D=\276]\224\217\274\033;P>\037\306<>\347IF=]\211\032>J#&=_\007\376=a\034\241>d\243\"\276\340i6\276\245lJ>\363xA>fuk=L\010\231\275w\263U\274\022\227a=6\237\314\271\t9\236>\013Y;\275\n\267\016\276\356\232D\276\274.\032>\332\265i\275q\250\217\274G\301a\276\215\216\277\276\327y!\276h0\344\275\304_\r>\021\t;\275\254f\240=\310A\027>\256\212\300=m\355+\276\226\2705\275\215z\331\273:\366|\275_\246;\2758\350\203>AsH>\372\250\236;^N|\276SW\022>\034\222\276\276\221}\232=J.\226\276YX\200>D\272d\275\360\305\255\275\354[k>S\036 =\233\202\222\275\2472\262\275d\342\031=\374x\033\275\346\346\213\275\274z\030>]\204\245>\200\205\250\275\034f\226\276\256\320\345\274i\367\005\275$\372\231\275?9+\275\026_2\276\3541\213\276\021\272\003>\261\230\013\276]wj=\312\211w\276\003\004!>\n\245U>(\n\247\276Uh\310=\0148\031\277\307\3705>\251f6<\372\262\267;\371A\\>\365\341)>$\213\227\276]X\222>.\277\243=\230y3>\246p\365\276|\255y\274\213\3413\277\355!|<\022\311i\275&\205\307>R\331\254=$\3303\276\254\014,>\037\365\020\276\271\020v\276\260N\252<\245\241b\276\244\336\036>\370C\n<3i\304>%\231@>\371\375\246\273\"K\254\276H\203X\275\201\246j\276w+\213;\317\377T<?\327\252=k\360\301\275\266Sp\276O\251\360\276f\334\024>K\255\314\275^\255\004\276Q\352\322\275D\320\024>\336 \266=\361>\273=\221\341\264>\330-h\276\355l,=\027n\227\276\377\270@\276}\240\346=\246\373\316=p\261\204\276\320\246>?\363y\001\274\377\212\243>3\341t\276\217)\343=0\025\303>T\037\207\276\037\030~\274\037=\022\276 Lq\276z\317\347=\321O\271\275\n\377<>\220\206\371=\301\266\267>`iS>\321X\234=\353\026(\276\351\201\361;\215A:;\303_\250\275m\372\241\276\325;\212>\351\3278>e\003,>U\254W?\01690=\312\230\224\276\367r\252\274\360\002\200>9\257t\275\177H\177>\240\246\013>N\035\214\274\037\217\n\275s\307\257\276\2022a>\274@G>\017\200 >\362c\247\275:\000\361\275\353\231\232\275w\353<\274H\273\213>R\262Z\276\r\0002\276fX+>u)\t>\032\232\326\276\2207\242=.\3324\276B\3230>\3553Z\276=\367`\276_\233\374\275\212\034\217\275\356\365\006?\367H\036>\273v\310>\261/\210\276\325S\225=\t\n\342\276z\204\'\276\033?\337=\204\\\235?\213\221\207<l\257\035\276\032\025\261\276\205Z\340\275F\335\244=^\261\247\276<C\323\276,\327\223\276!\0103>Dhs\276\006R\227\276\356\260\257\275\371\3776\275\205\325\325\275\000Zd\275YF\211\276\3609\305\276:\034a>OP\215>I\230\226>\025\240\261\275\0213\004>IB\236>$~\232>\357\313\231?\350\351\276\273\230\203\314=\253\357\253=\200\023\370=\303U\210>\017\220\037>\316\251\322\275\337\361@=\354\313\242\275\324\371\312<\024\266-\275\332\241\274\276\206:4\275l\000\013>i\0141>1\352\014>\276\0002\2750\275$\276\200~\344\275\027k\263=o\353\212\276\354\232c=\366\225(>Sck=\350x8\276L\367\243\275\te_;2\002\342\275I\242d\276\337\342\254=\367OZ\276\020*5\276YU:>$\035+\276\343\315\230\275O\260\372=f\317q\276\n!\275=\357x\335\274\357Dl\276+\213\335=\332\'\322=\017\350 ;E\322\002>\305\007x>Wa_\275\004\264\313=\200a^\276(\307\304:D\376B=\352\203\032\276O\\d\276\211\262\267>\366\025\323<S\016H\275\325Jg=\3069\234\276dYg>\354\362\304=U\2230>\343\307\267=\230\377\224=]E)\275?#\213<\207\363\024=\327\020/>\3223\373=7\001\250\274\210I|>:\313\302=\274\"\266<v\356Q>\301\243\312\275\363v\374\275\232\376p>\036(\003>\177\213\034>\307+\367=\345w\236\276\331\224\214\276\343Y\355\275\347\354\203>\341\200\263=k\177\244>L\025\025=\212+_\276\'/\263\276\0136\036> \265\336\275\017\324o\276;4:\276\300\323\337\275w\356\333\275l\214\220=\304\035\203\275\303M\244=\'A\204\276\277\307X\276-)\367\275\244\213h\276\032\243M\276\303\335\025>z\341\035=\313g\357=Rm\335=m\3416>\252\241T>of\233>\006\367H\274z\0327\275\0271\261\275\250\360\004\275\334\0312=9\204\003\276$\270I>@\301\216\276+\013\007\276D\026\271=\347\3353\275\233E:\276z\312\316=\350\236\334\276\233\3601\275\n`\305<zS\341=\256]R\276\343\246\371=\310\014P<\177PN=\210\223T=\335\014\212\276\233P\225=\237\231f>6\245\206=\235\370\002\275\345\037\277\275\327\204\262\275\247Y\014>\022\235\372=+\325\224>}\005\244=IJ\207\276/!!=\315\223\000=\202\t \276\n\304\036\276y\313A=>\225\206\273tg\254=\372LB\276\264\007J\276\347p1\276\245\211[\276\333`|\276\347\000\267\275\372\235\246=\026\271f\275/\326\240\276\0270\264=\323X[\276\003\211\321\2754We=s\314b=\352\354\322=\3270\014\274\227Q\313\274L\223\323<>\"\\>\241^\226=07\277=\306\225\202=7\224[=y\237\200\275xC\370=\301\316\252<O\035@\276\310\005\036>H\311\273\275.\247\243<D\275O\276\033\243\002\276.6\363\275\264\352\014>\"A\323\275\376\345\333\274\304_\312\276\017Q\367=\333o\226=\214^V<\371\203 >\'\240\"=\276\230[\274o\325s<C\247\207\274\006!-\276\233\234-\275\334\021\375\275\345$2>\341\310]\276\237l!<\030\205d=o\026&\276AW\t\275\276\231\244\275\017\270?=\235\233\335\274\006u/\276\034V\210\276\364\206_>\036\177\244=%7\260\276/\340Y>\361\305\254=\230\233\347=d\355\304=8\217\023>\263Wb>\274\262\206\274\360Nc>\245\271]\276\356\006U>w\033\006\276\375q\036>\320\367\021\276\250\333\263\276\221\031\212=\201%\217>P6q\276Y\3563\276}.\010\276v\335\260\274\337\026\245=\274$,>!@\241\274rz\201=*\225\227;\3436\265<Bv\251\276k$>=\352\230Y\276G\365\207\276\265\260\332=\353rJ==q\235\276\364&\220=\261\233$>\251\370Z>f`\005\276X\370l\276\330\230a=\361\005\346=H\240\205\276\306l\270\274k\026\245\276\305 \257=\32272\274\300\276>>\025\227l<\340\272\010\275\271\213%>8\205 >\326\225`\276\302\253[\276\272C\033\275\247\356<\275\215\335>\275\205\210\211\276X\315\031>(@\354\275|U\206\275\254\031\217=\366M\"\275\200\236\202\274(\014\351\275\223\307\237>\224\265\202\276\342,#>o\027(>\316\"\312=,V-\276\354a6\276\315\177\272<7%\216=\220\022\324\275\211\032\376<2\213~>6)\302<.\315\206\275\246\232w>\303*.>\024\213c\276\372V4\275\277O*<\200k\205=\203\364\357\275\323d\213\275\034\274\004>\037\364+>\340\033x\276\230]\244\275\271u\220>mr\202\276\001\262~<\000\'\244>_w\251\275i\260\232=B@z\276<\337->\232\273S\276K4P>c\'}\276H\273\032>m,m>\340\021\377=\374Xn>\001$\223>\014\220l\276k_\342\275\227\315(>|\271\354\276!\307\031=1\330\000=\014:\200>)6\224\276DBp\276\2537\244\275e\354\206<J\344\361=\366\214\240=Qqv>\265\3412>\307\351\004\2763\274\t>\314n9=\227\3778=\035\200\372\273\265\3014\275{\222Q\276#0\331=:\367g\275\220$\3629\241: :z\205\027\276Q\\r>\236\330\243<\'Fs\275f\005t\276\005\tR\275\241\020\201\275\025l\t\276?\0072\276\037\271R>U\305\232\2753\364@\276k\234\252\275\250\233\224>\370K\204\276zA\304=\202j\326=\303\340\317\275\3733\026\276\314\331$>nM\202\275\207\0258\275A\276\311\275HB\'\276#K@>5\270\257\273\2502\340\275\325\377P\276\330\215\235=V\014\272\2753\0251>\215H\321\275\r\213i>TA\023\276\333\247\310=\251!\000>H\376,\275\376\207\007\276,{7>\316-\207\276k\036\031\276\237\357 >\004=R>\303\210D\276!XD>\225s)\276\006\232%>yV\024>}\025\321\275=\003S\276\3346\353\275\001\367T>\034\251\330<:\035\034\276\236I\013\276a\207o>\002\356\030\2766D\362\274-\240\002>4\244\305\275\037\037a\276\017\270>\276\301\r[\274\263\335\205\276\225vM>_\264]>\205\3706\276\'\323`\276\014.\265<\013\324\004=\240\303Y\275\335(\006\276*Tx\276lyQ=e\246i\276\302o5>\370\335\205>\017\246\\\275t+1\275*\"\213\274nl\306\276\355\372m>!\033\222=B\326\007\276{\006!>\327Pu>\212b\221>V\256\017\275\204\251#\276X\354{>\273]\316\275\223\230L\275\231er\275\353\327F=\r\216_\276x\316H\275m\305\322<\241\t\223>\261`v=\267)\301\275|\236r\2765{\347=2\023\014<P2\017>\276\t;>\212\343\200=\030\371\\\276\267]}=\240#7\276X\220\332\275\275Fq\276\362x\356=\3735\345\275R\327p\275{\364\377\275\025r\316=\rID>\246\323\201:\373Gk\275f\001\346=\360w\033=N\275W\275\357^\310=\002/}<\211\327o\276p\332\203=\362\203\001>\267\332B\276n\346z>\306T\254<\361\236\343=u\346\321\275\230r6>\021\362K\275\037S-\276\341\303\204\275\271\274y\276\\\367\317\273\375D\246=h\352\'>K\3236\276\357oI\275\017\303_>+\267\267\275\215\244s\276\t\335%\273g,\273=+\261X\276\222]Y>\360:\372=\000\314S\276\020\324t\272\254C\323\275\256\305~>\'\006\217=\262_\313=#\264\333=o\250\367=\214\253\021=\002#M\276d\255!\276\000B\210>\372(\036\276\206\3370>i\2566<(\3312\276,u$\276.L\216=\352\037d>\325\312[=\244 \207\276\264\355y\274/\213\311\274\316O\016:Hu\363\275\266\313O\276\3151\301\274v\265=\276\027[\037\276\rf=\273\253\327q\276\351;\003\276/ \t\275Y#\226<\016\267\202\273\245\347 \276),\210\276\336\'\023\2764{\322<\020\360\343\274\207\324\026\276\353D\004\274\317\274\250\274]\265\336\275d\266\207\276\014i\001\276l\213\200\276a\331|<\007\033p\275\027\355>=\333\261\260\275\357K\314\275o\271\247;0X\277<6Ep\274\313/D\275\327C\313\275S\246}\274\331PB;*\214\244\276r[\243\275\360\373\034\276\212\200A\276\220\027F\276\214\330\210\274\006\204\200<\316V\347\273|\263\005\275\230Y\313<--\243<\217ot\273E\352)\276z\202f\275\331]Y\275}\260\243\276\302\2514<\242\334\375<\013k\217<c\236\274\275\020\373$=WV\255<}bb\276\264tE\273\304\215\371\273 \240\210\276mW\377=\220K\261\2768T~\276\252\347\005\276\273`\322=\372\2019\276\300\2674;?SZ>\032\006\031>Yz\233\2757\301\037>rE\342=[`^>\030\033o=\373JE> W\230=J\234\r>e\037w\275\027\214;\275\017\221\326\275\303:,\276\311\313!\275\331\240\030\276\224R\273=`\025\016\276\300A\312=\364\375a\274\223\217/\275\360\210\243>R\306\010\275s\365\013>z\375x\274uL\224\274\351xN\276\034_\005\276\235\353\311=Y\365\352\275\270L\242=O\353l=T.\216\276]\335e>\276\367B>\'q\366\275H\271\246\276\365B\236=\025\037~\276d\306\213>\211\372\317\2765K\020>\010\343\345=\271\277]>x\025?>i\320\204\276\312\370\270\274\0017,>5\013\265\276\340\024\314=\226\356\007\276\363r\006=^\013\033=N9!>u\206\327\274\243\277r<\210k\\\276\232\370\314\276\005\233\023\276\337\214@>\240\301{\276c\362\n\276\310\374\'\276\000\232\251\275@L&\276J<6\276\001gI\276ZB\017=\237\225\250\276Q\243\333\275\347\372\247\273\230jw\273\021\324\000\276z*\022>\366\363\n>1\306\306\276\314\221)\2767AE\276>\217m\275\347\263\017>\203XN\275;\262\271\274\311\370b>~G\231\276\305\316\273\274\243\327N\276QB\200=\026\204\201=\236\336i=\352x\022\275,\327\261\274tH`=q\306\202<\350n\272\275\027\203\221\275\331\347\033\276f\314\000<\342\331\346\275]Ho\276/\226\252\276 Ua>bZ\317\276\260\326\024>\212\375(\276\344LI\276\356\031\260\275K\201\337\276\226\021\001>\252e\016\276*w\t\276\303_4\275:Y\214\275\225\340\261\276.\3757;\177\347B\276\230M\202=\341I\272\276\324c\337\275=\272\251\276\025\342N\273G\t\303\275\331\221:=@\000\360\275^\251\220\275\223uB\275\n\216\024\276\271w\001=\000B\332\275q\324<\275@\231\345\2752\224s=\'\376f\276R\360X<\2731\031>\200E\266\276\343\250\214\276\221\306\315\273E\n\007\276\332\312U\276\356\271`>X\362\r=\367C1>\235K}\275,\021g\276\337\343P>=\2250>(@\350\275\000\0165\276\264\227$\276\270:\220>\017\023\027>)\322\r\276\3167\031\275\337\266\026>\355)W\276\2202h=\327\330w\276\264\350\267\275AO\271\275\300\272\251\275\031\023\317\275J\267\226\276\376\316\017>yk\223>U\177\223\276\037\263\317:$6J\276\306\3629\276\"V\217>\271 S\276\'\373\221=\325W\307\275\277\027\312=*\n\004\276\320g\345\275 \2521>\212hy<\350P\202=\343\026\235=\351\220\235\276$\352\216>\201~E>\217y\267=\310\341\334;\312\014\033\276\336\343(\275\337\261.\276\317D\252=\367\327\014\276\263G\036\276\272NV=\333\230\346\274\212\277\">\343\026\252\274?\267\253\275\177\r\301\275\355~6\275\257kl=q\314\245=B\025V>M\235+>*\037~>\016\326\033\276\272\232)=\2018h>\016\016\365:\016\354\340=\r\356\227=\315\246\233=.4\203\276\315\232\257\275\323_O=\014\277N>\2419%>\214\n\317< \210\231\2753W\320\276M`\n=\333\r\365\275\320%u>\376\245%>\273\274\230<\321}5>\265\247\"\275\375\220M=\215\031\206=\te\341\275H\302\205=\251\302\233=\346\262~>rfH>g\246j<\205<\250=@j\206>\252\353\343>\344\320\354\273l\0102\276\225m\021<vlI>\357\"\350\2754\254m\276\364\201\007>\2609\244\274.\271<;/\224\227>\007\017#\276\360\231>=\342C\273\275\016\355\272\274\020^\261\274\205\305i=\252>\032\276m>\223\275to\007>d\304\303\274\037\276n>\3120\315=o\216Y>#\343\210>\030\276l<\377+6\276\276)\316=\014\0226>\315Tp=\221^D\276\277\350\226\274\006\377\027>A\322n\276\360\\6>#\241,=\270\"\253>t\2019>\314\243\371=\031\247\027>\313\000A>\235\327\300=\037\324\257=\010s\324=\230}\037\276o\033\004\276\201=\267=*\335\266\275\226\027\034>\214\360V<I\357`\276?x\363=\342V\340\276K\326\235\275\0348\261\2753\265\266\275~\320)>\341\033\202>\232t\024\275\022\361\373=T<\261=\305`\234>\367\207x>\363If=\334\031t=y\240R>\245eg>\'\277;\2769\311\"\276\247\364\245=\026\216\225=m\344\210>\221\321(<m\370/\276\236\305\316<%\346\311\275\251g\020\275\361\351\233\275%\223 >\260\313\026\275\\Z\267\275|\310x\275\374\204b\275\346\274l>,E\234=I\304\324=\366\307\204\2741\014)>\016\302\001\276\352i\216\274e)&>y\235\007\276x\273\336=\23670=\270F\345=<&\'=\273\\C\276\224\021,>?\334\213\274\322\333\020=\276\n5\276\256Vj>?Am>\261Xo:\305\364!=\261\377\203>\227\362b>\255\304\202\275\255\210Q\276\272\365\031\276\214\343\236= -\036\276\276\215\003>\312\273#>\225b\244\274\211K\\>R\207\277\276N\326L>C\rO\275\241\005X\275\205O?>x\303P\2761\200\260\274+Y\213\275\321\205n=p\206d>\357\214\034>\242Q\'=)\341e=\241\n8>mn\017>D\307\020\275\363B\364\275\310r\377\2749\316\'\275iKQ\276\007\032\246\275\354\211\376=\211\215\034\276\237\227\225=l\003\016>\3778M\276M}\241=\225\342\324\275\332\025\252\275\307\316\t>v.\202\275\305N\013\276\024\263\321\275\331J\200>\323\016\265=Q\227\352=;\3658\276cbK>:\244\206=\272pq>\243\335\030\275_\237\213\275B\362d>u\254O=\016\270\202>\177\275\237\275#\355w\275\271\220S\276H\001\355<\013Z\002>\22739>\"E\240\275aJn>_\364\221\274o\024]\276\006\376\254<R_\216\276bb\035=\234\375\241=\320L\322\275\213\371k\275\263\335=>\273\025\335=\251k>>e\301\177=7\331\371<\247\301\344\275yl\026>@@\371\2735\207\211>!d\336=\215\004\373<\325}J>_\272\023\275\304\032\030>}\003\010\276\232yY>?\320#\276\270\013\212\275\242?\342\275\363\272\263=jy\206>\014\212\361\275[\303\364=\213\355k>v\3269>bLX\276mqL\276S\335\321\275\"|\331\275\257\022\331=S\260\t=>\021X=\327H\020>*\007\177\2766\313x>,\233\300\273 \274\221=\254\3540\276\300\221\034>.\013*>\265\"\266\274\nQ\242\275y\302\364=)\"5>\240,5\276\210=\314=\016\236\n\276\235V`\276UAN\276F\361\241=n0n\276\257\227\276>\364p\275\275\211\260\025>\026}\004<cmd\276\365\336R\276\331\346?\275\n\366a\276\363\354\305=\271\317M\276t\022$>9\231\226>!\024\203>P\375P>\017\232\033\275\017\2513\276\313\260\373\275\005\315\024>\n\317\006=L\006\374=M\rX\276\252\024`>Y2\004\275w\"^>\271\212\261=\330\023O>\02125\275./\356=\205j\021\276\017g\322\275\212\275-\276\262\367d>\260\275\227\275\371\263t>\\\306\203>\33782>\204\005m>3IU\276L\217\212\275\314\244\214>\2500\212\273\221\263\247\275\303wa\276\221\\o>\236\315N>\371\274\305\275\231\226|=W\235S>h\356\027\276\320\367\271\275\322\204\236\271\265w\227=u\\P=\3268\247;#\207\331=C~.\2761\004\267>\213^w>\377\031d\276\245\262\311\275\320\272+>d\337\214\275\221%\016>\270o\224=\265h\321=K\371\220<\025e\017;k7\203>\037\214@\275Y3Z\276\227<\315:A\235*>\233\033\266<\337\360\205>\235\236\231=\024\327\256>\n\362\200>\302/}\275\276PG\275\310\235i>\362Q\220\276;\022*\275\355\370\344\275l}\013=\267\356\253\274\321\031f>\022\205m>9v\306\275)*\227>\257G\\\276J\357E>\2755+=\331\021\"\276C\3270=#z\217\274\343t\234\274\244\177o\276\313\217\203\275\276\037\025\276b+\177\276\232\\:\275M\252c>V\232\022=\251\374Z>\007v\337=E\250\216\276#k>>s\332D>\265o\276\275\203TL\276\327\240\276=\200v\214\275\215ej\276\374\234l\276\035\341\003\276\271u1>\233\355\354=S\305\362\2751 \261=\'.\235\271_\'\241<\374\216\370<*\2255\276\000\370\337=\247\365;\275\026\236d>\232\237\301\275Y\235`\276\320\3748\276\352\221t\276[sF>Ks\313\275\021E\305=G\267\216>3E\242\275f\270\372\274\305\373\020=Gd\327=t\246\246\274\177:>\276Q\340\003>\316\231\210\275^\223A>fR~=\312VP\276X\323\266\275z\317\317=h\331\221<\3359\017=q\242\325\275\257o\240=\213\010\371\275@.\321=\240Is>)\312F>h\201Q\276Ta\345<t\231\232<P\372\027>>\233k\276\216\360\377=\247\031\253=\251\226M>7\247m\276\024\207\030\276V\344\032\273\330\3128\275\370I\231=\2725.=y\355\213\276\244bO<\033\2323\276\270\376\221:\334\253I\276\177?\322\275\304\177d=\353\244+\276Zcd\274e\025^>\336\336\324=v\364%<\235\035\362:~\344,\276z#\">j\270<=a\310\t>\264\242\027\276\003\354\374<\251\343\367\275\033\205\215\274\276W\341\275E}\266\275\372\016\356\275\376\024\250\275\252\254{>\350\010\314;>\020X>=w\223=\230K\352\275\"~\277=\33546>\376ua\275u_\007>\356\357o\274z\251\004<R5\200>X\"x\275\313\022Y\276\221\312g=)r\350\275\243\325\271=\032\345N=\\v4\276\000\263Y\276\276~/\276\321:\203>\326\032;>s\014k>!\226\275=\332\022#>\016\356\003=\223sL>r[\347=\316\355\r\276`M\264<\335\204\325\272^\027\003>\312\311b>\353G\332=\277\353\307\275\327\222\200>\"\212=\276cc*>G\036\216>\363Ch=6X4\276\005\023\005\274\0065\275<\221\331;\275\220\201\236\273|\2759\275h\254\005\275s\367\306;d\000\214=E\355\023=\360\377$\270\320a\030=\'\036s\276\332\177!\276\346\237\366\275;\237\314\275w\353\203\276x\375#\275L\210N\274\016\340M<7=\355<o\235(\276\245\276\005=\201\022\000\275\251E\312<\373\005>\276F\026!=\202 \014\276z\251s\276w\230\312\275L\2404\274p\035\350;\350j\273\275\021\264Y\276\263\372\030=\345RN<\3152y=-\n\n\276\230\252\237;p>\037\274D$1<|\007\014\276C\025A=\225\214\032\276\002\2050\275\310~\200=\252M\257<\n\365\253=\3742\350\274xq2\276\375\340U<:,\247<\221I^\275Ny\372\274\240D\256=m\234\020<\332\332\304\275\246%P=[\0272\276\253\370\346\275\215\361[=\214\300\255<y\350\317\275"
      }
    }
  }
}
node {
  name: "FCN/dense/MatMul/ReadVariableOp"
  op: "Identity"
  input: "FCN/dense/MatMul/ReadVariableOp/resource"
  attr {
    key: "T"
    value {
      type: DT_FLOAT
    }
  }
}
node {
  name: "FCN/dense/MatMul"
  op: "MatMul"
  input: "dense_input"
  input: "FCN/dense/MatMul/ReadVariableOp"
  attr {
    key: "T"
    value {
      type: DT_FLOAT
    }
  }
  attr {
    key: "transpose_a"
    value {
      b: false
    }
  }
  attr {
    key: "transpose_b"
    value {
      b: false
    }
  }
}
node {
  name: "FCN/dense/BiasAdd/ReadVariableOp/resource"
  op: "Const"
  attr {
    key: "dtype"
    value {
      type: DT_FLOAT
    }
  }
  attr {
    key: "value"
    value {
      tensor {
        dtype: DT_FLOAT
        tensor_shape {
          dim {
            size: 64
          }
        }
        tensor_content: "\007b\273\273\216Q\266:<\341\004\274E&\3659\204~];\350\214\367:\004\262\245\273H\367\026;\224\333\212\267\002\260z<p\340\215\274Q\327\300\275U\3018\275\253S\205=[\341\207=\320\027C<g\241\227\272\002\247\271:\2051\244<\337\365\222\274\241\034/\274\230\0147\273n\020\014>\256*5\273\246.\213\272\t\366d\270B$\375\273\370\265d<\367\235C9hN\201=\203\201\000\276\337o]<Ui\202=\373\307\323=\016\225g<b4p<6\356\005\272\352\322\2159\271U\301\276\037\021\212;##\014\275\226/\036\273\2210`\275\275\005a\274\333I\250=`\256I=\"/\200=\300\221\277=\371H\260<T\035\014=.\003\\\275\305\006\032<\211(-<Z\350\033\273\350Zm\274B\303\232=\340A\310\273\360\253G=\256\007:<O\365+=\004\212\245\274->\313\272\257\222f\275\334\257\377\276"
      }
    }
  }
}
node {
  name: "FCN/dense/BiasAdd/ReadVariableOp"
  op: "Identity"
  input: "FCN/dense/BiasAdd/ReadVariableOp/resource"
  attr {
    key: "T"
    value {
      type: DT_FLOAT
    }
  }
}
node {
  name: "FCN/dense/BiasAdd"
  op: "BiasAdd"
  input: "FCN/dense/MatMul"
  input: "FCN/dense/BiasAdd/ReadVariableOp"
  attr {
    key: "T"
    value {
      type: DT_FLOAT
    }
  }
  attr {
    key: "data_format"
    value {
      s: "NHWC"
    }
  }
}
node {
  name: "FCN/dense/Relu"
  op: "Relu"
  input: "FCN/dense/BiasAdd"
  attr {
    key: "T"
    value {
      type: DT_FLOAT
    }
  }
}
node {
  name: "FCN/dropout/Identity"
  op: "Identity"
  input: "FCN/dense/Relu"
  attr {
    key: "T"
    value {
      type: DT_FLOAT
    }
  }
}
node {
  name: "FCN/dense_1/MatMul/ReadVariableOp/resource"
  op: "Const"
  attr {
    key: "dtype"
    value {
      type: DT_FLOAT
    }
  }
  attr {
    key: "value"
    value {
      tensor {
        dtype: DT_FLOAT
        tensor_shape {
          dim {
            size: 64
          }
          dim {
            size: 32
          }
        }
        tensor_content: "\252u+\276\233\345\024\275\327\343I\275\276\312W\276\317\320\202<s~\355=\340\375\267=\364\303D\276\267\213!\276\206\0135>\367\224\003<\232\305\031\276g\007\233\275\302\274\277=\272PF\276#\323\020\276Z\\\203\275(\233\274=\214\260\307<v*p\276N9j\276\273\210\277=\222\320\365=n\036\001\276\232\352>\276nk8\276\306\273\014=\316\304\256\275G\355\253=v\234R\276f\3659<e\354&>\332\313\n>L\336a>\264\207\353=\014\315\320=W\204U>\241\321F\276\3641\263=Q\2176\276B|\310\275\220\253\357\275q-Z>hR >\376\313\244\274\200:\\=G\004\252\275\252MV\275\302\272z\275h\224<\275gC\333=\335|)\275\256I\233\276\236\372\260=\340m\206>\r\374\241<\202\321\262\275\334\370\230=\315\322\204\276\243\372\n<\241\366\"\275\275VC>\244\034N><\327L>o\312\366\275U\213!\276\372Q[\276\014\334\n>Tf1>\3174\305=\232VM>\030\034t\276W\323~>\2062\200>\335\033\234\275<q_>\272\301}\276q)\212\276\203\245\227\275\327=\336=\322\017\371\275m*l\276\340\"t\276uI\224<s\333\214\276=\340\034\276\2406\016>3\252\202=\357\241\025\276]\217\016\2767\253,>\253\036\311>c\335\021>wZ,>\376=;\276\025\355\250\272\031a\253\274q\231\250\275\352\333\262;\375\204k\276\353\212Q\276\237\275R=5\n\250\275j\354\036>^\177\360\274\256v\332\275\216\316\371\273\314\333\232\276\024n\'=\256\\\315=S\306\325=Mk\201=\370\273-\275\255\245\033\276\200\2739\276\366\233\243=\346\177\243=\212*\025\276\365\237\025\275\354\030\230\275H\251(=\335\271\316\275\313P`\274.\343\372<\236\023m\276\304\313\331<\021m\254=\331\366@\276\265\375_\276\211\177U>\356YE\276ln/>\216\356\323=\200v\321=\2227\002\27604==0\032\375\275\n\263\213=-\367\217\276\323\365\221>\327\224\006\275\266\313\212<\007\275\300=\376^\005\276\205i\312=\364e\272=\251\203+>\013\223\365\275U\242\310<E\3247>\305\255\221\274R\210l\276k\351l\276\272\217\346=\373\013K>\'\236;\276\r\005T>)\244\202>\356\275Q\276\307\3513>\237\026\031>x\210z\276\341\2205>m\377\274=-\246F\276\315\365\374=\236\343E\275{M\324=6w\321=\255\353\333=\270f\024\275\322\227\275\273\342\2035>\252\310+\275\003\264\244=\031w8=C\3063\276;M\307\275T\004\372\273\033\000\347<\254\276(>\030\021\203\275\024cG>a\264\025\276\2200\363=a\036\272=\210\347\031\276\377[!\276\0206y\276T\221\022\276t\027\251\275\267\376r\276n\3460\275U\374\251\275\346A\263=\351G!>\177\352\237=\001\273V\276\340\316\235<k\006\034=\301\253\020>\261\321B\276\256\213\200<;[,\276\001JF\276M\323\r\276\247Y\226\275\3047$>\225\017?>cu\341;\323\370\263=\007A3\276\030ts\2762(\013\276\217\262\026\276\316\212\024>h\345X>h\321,\276G|\266\275\270\037\201=\262\250\034\275\t\233B>O\354\261\275\227\214u>\006\360j\276\354W]\276\307^l\272*\350\025>\312\t\306=L\037\310\275\033*\221=WNJ=`H\233=\323b<\276\262P \276N\362`\275\376\t\274\275\376\2321>\2553\300\275c=\014\276\233\340x\275\210\031\017\276*Bn>\375\020c\276^\203j>\317\274\370\274y3\035<F\351$\276E\306]>\247O,=\203sJ>u\257\244\272\336\020\227\275\267~F\276\303>\273;A\222\025>\213\273!\273g\327z\276k|\010\275\211\262\037\276\020\302+>\226Q{>8\271\255=\335)<=N}u\276\314+\231=\254\311\233=\313\224\"\276r\345%>gs\007>P\350Z>\253\200\377\275\354\352\353\275\036\264\n=[\251\214\276\0066n>\306\020\334=\347We=|\360>\276\006\027 >\243\034\010\275\240@\244\275c\023\261\275\300}\267=\016\225\231=\364#\246=g\207\213\276\\v\333=(\026)\275;S\014>\244?k>\236^m\2751S\207>&\177\271\273\377M\'>\267\317\027>\247A@\276\014\237\013\275GM\372=\025\347\370=\227\315j>\251\031\300=\366\346 >\027V\030>\tgA\276\002\0107\275\311\317-\2764R\276\275.G\242={\302\224\274\016<E\276\222\376\021\2763JD=\330\243d\2765\252\204=\230\362e\276Pnd\274\'\016\357\2753\357\237\274U_S\276\037\031\322<\n\006%>\200\265b\273\315T\031\276\350\3742\276\373=2>\320V\370\274\t\272K=\362B\311\274p\322\323\275\274\245\035>\350\230`\276\216\343/>6\373&=\3562\033=\330\241\375=c\205\235\275\217\017b=\245fq<\340\310\351=6s\026\275\201\213\356=#\244,>w\240\034\276\271#|>\003sY>|@H\276X.\034=\250qU\275\016\017\245=>\361\314=q\362\207\276\376\036\307=\335/J=\006Om\276\236 M>\243\207d\275^J,\275\262\014\263\275\256\222 \275\212\272w\276S|\232\274p\334\226\275\\c;\275l,.\276\2502A\276\213E\273\275\223\316\000>\264\2368\275\350K\322;]\365V\275-F\232\276\'\tK\276\002R\311\275\231\237\212=\362\036\037>\372\200y=Yw\253<A\217h=;\376\223\274\314\331<\276\367\034\305\275\337\030\271=Tfx\276\017M\004:&\346\n\276\330\334U>\221\316I\276\203\336(=\246\376\305\275P\367\321=\212@c\275\272Q\222\275tYO\276\217\363\241>\007A\017>\\ \022>\215\352\263=\341u\307\275\260\r->\004\024\235=\260\2307<\237\017\336=\202i1\275\205ag\2760+\030\276\371\202\346\275q\n(>\370!a\276IB\344=\311v\034>i\030\255=v\325z\276\227\2129=:\352\200\274]|\n\276\033\364\"\276\364\021\272\275\360\010\355=7\014\027>\277\264\r\275\200\r\227=\317\347\232<\255G[\276\302\266\305=7\372\244=\267j\227=\237\311\006<\242x\203\276{\326\226=\203\372\\>\342;\350\275C\237\370<\rE\265=\213\3134\276\270\213\320<Z\347\263=q\354_\276Y\007\026=\2769(\276\256\003B>\314\000\202\276i\362\000\276lr\237\275\305Ou\276\213\275s=\344\0169\2765;\033\275\241\213\345=<\271\203\275G\315G>\036\227\035\276\323\017\036\276t\030A\276\340*\205=\213\301O\276\211\376`=\nq\232=\362(\005>BL\330\275\345mJ>\255\375\225={E\343=`aw\276\037S\001=\177\032\020\276\342\360\206\276E\310\333=^\2616\276V9\250\275e\004\002\276&\2460>^\251\350\275\232\346\205\276\255F=\276|v[\276f\221#>\005\352g\276a\036\374\275\260\2752>(O\023<\361@\343\275+\005\275\275\\\272\320=U\3770\276\024\355\327=\024\277\000\275\314\277/=\364\241#>\026uO>\320\241e=\347\257<<\254\315J\276\255\230\203\275\362\t\034\274\2606\030\276j\305\214\276\315\005H\275\364dQ\276A\316\217=\2053\217\276\342v\026\276\"^\211\275\016\255\243>\016\335\362=\027c\356=\373vC\276\350?.>hd\264=\326\234)>\247\220U>#|>>M\247\177\275\340\226\360\275MwI\276jnm<\370j<>z\257{>{\262\345;\256\000r\276z\346\r\276\010P9>\321\307\235\275p\305a\276\007&\223=\310\017#>\003\3659>$B\245\275>\214q> \026c\276s\"d\2757\242\026\276^\035\225=\340\013$\276\253h\321=[\242\262\275\265q\001\276\340\326v=\240,\'\276\250\231\233=\374*->\241\020\221\275\201\010\027\276\362\214\236\275\001\307\005>\017\310\377=\202\363\023\276\337FK>\210F\325=0\354\207=\036|\361\275\203;\036>xg\261=(\321.\274\241\261\220\276\222\342\224\275\026\0003<\377m\212=e\3369=\021\374\261\275c\223\367=tj-\276j\336\000>\335.]\276\257\361,\274W\177\023<\247\276j\276\005\016\315<\032\352N\276\264C\315\275\376\\f\276\312t\256\275\203|\013>\223\333\005>\233tk\276\2320C\276\r-u\276\017\221\020>\230T\277\273\323=\354\275e!-=\206\376\021\276\013\376<\275\232\276l=\374ei=D\2618>4T\243\275\r\257\251=Yo9\276\022\r;\272\026S\"\276\243\005q\275=\211\217=\356.[=j\366<\276\254\306\231\275\217&P\275g\222\363\275\331\236\202\276L\202\304;\227\305.\275Wy\202\276\021\010y\276\321 \013\276\020\365p=#\330\013\275\345\r\200\275V\023&\276\255\304\277=$\305O\276\021u\317\275\000\371z=7\277\311=\341\215\357\275\272\315f\276$\346\230<\302q\326=G\224,\276!t\316=\232\341=>dj,>\262\255\265\275\363\333\370\273\242\256\270< \313\022>\3727\311\275\377(\030\276f\245\306\275h\214+\276\010\273#>H\275\261\2750\230\323\275\321\005[\276Fr)>\330\030D\276\021\364\014\276\331\333?\275\337\234\010\276NJl\275\207\3368\274\250\354\010=\256\003\325\275{\026v<\357\276\337\275C\261\264\274\343\200\036>T\027n\276\227\225@>;\3312\276\324>a=\357\365\002\276\\L\257\274\303\264\365=\031LQ=#\311U\276|j\217\2750\225\360\274\013_\324;5K&>\"\251\347=1\257\212\275\351\357\316=f`N>\'\246\204\275}\026n>IX\277\275\314E\000>\023\000\014\276x\253\214\274o.T\275\344\262\023>\310uX=c\332\337=\245Se=\232\003\227\276\032\200|\276\010\357\312\275\013[\003\276\354xb\276\257`u\276Z\2726\276I\251\227\274\265\265\276\275\036D\331=T$\221<tY\231\276Me\267\274\363@\261\274\n\362\'>\212\334S\276Hq\210\276\035s\357\275\204\247\230\275oH\360<\3459\315\274\252\274A\276\023\327\032\275\373T#>\204;\371\274\221\342\263;t\022\200\276\312e]\275\212}(\276\211\264\347<\007\317\300\275\236~\202\276\300|\272=\373\217R>\230\215\3549\344\210x\276I\370n=\325\037F>>\341\253=t\\\217>\333/\'\276\013U\305<@{\237\275\267\303\306=D\237B>\304\361\035\276\243G\034\276\274\306\021>\340\211\211\273-\211g=F\242\031\276\027e\033\276\206\0233\276=01=\334\000\326\275\014\2437\276\322\005o\276^y.\2745\367\201\276R\224\222\274\016-M\274\314H~\275\353J}\276gk\231=\016\212d\276\251\272n>\346s=\275\322\256C>\277\2133\276:0\247\275\033t\376=I+\022\276\001\210Z=\324V\033>7<d>k\206[\276\214\n\032>\317\373F>\345X\361\275\310\341\362\275\316\324>>\247\212\021\276^\246\225=\360\304j\276\323(\001>\373\361A\276\263\203\365<NE\204\276\217P\246\275}\357U\276\343\200\257\274\032T!>\253[\027>\311\262`>\214cC>\341\306\007\276\367k\037>!=R>B\277\336=[WQ>\304\2506\274\236AY\274\230`\014\276-b\306\275\244#k\276N58>\221v\267=U\377\242\274\205\227C>t]l\274\331W=>X\325U>O+\325=1>\006\276(7\005\276m7\314\274\303A\000>\004\200\217=\223\210z\276\257\314l=|\305\323=.\361A\276mf\001=\305\004\200>(s\022\276\361\034h\276Z\361+\276\255!c\2768H\033\276--\n>\310\000\">:\276B=\212\257G>\3022\227\275\232\337i=:\334W>\265\025#\276)\254\212\275\0350\276=M3/\275\202\005q\276\222~\273\275\315!\241=\217\002\326<\n\300L\276\303\302\337\272\325y\024>\303H\025\274\274\301{\276\014\305E\276\250&\220=K\241i=\312\023\207\274\231\363C>\217\326V\276\303J\'=\276\326B\275\027a\016\276\334\2043\276\243\213Y\276\036<B<c\351\346\275\207\014\245=_\215\374=a\211\001=G\317\033>\377\214N\276(\005+\276\342\233\251=\224\264K>\365\321\253=^\201\331\274\202\200\300:\351+\022\275\314\372&>p\230\202\276\260\377\255\275\200Z\357=\372\267,>\375\245\364\275.u|=~Q\020\276\020=l=\217\212z\276d\274\r>\365\\\001\275\231\370\346={\247\222\275E^\207\275\323:<>\334\357\n:\231\233>>\303\022\031=\334\326\340=\346\005\267\2754}\360<dWV\276\3659\024\276\334\371#>\201\350\300\274o\264Z>\357*\251>\336\327\272\275\316\332:<\345\002\350\275&\347B=\036\200\350\275\246)\254=\267\266\265=\224\243/\276\366\232p\276\255\302R\276^`\222;\276\020\316<\\\021\026>E\365m\276\ng\001\276p\342D\276\304X\365<\227\372\237=o%\244=B\367S\275)\371\251=\330\340\254\275\215\244\370:\226\303\234=6\207!=\345\333\010\276\'\213n=A\374-\276\023\230]>\007\215-\276X\253D\276Y\217~>\344\271\030\275\327\310Q;^W\375\275\267\000C\276\2701\225\275\'\242q>\210\250y>\304\366\215\275\336\242\022\276\207\273\331\275\031\323~>\351\210@=\330\325R>\211hV\274s\314\022>\200\370\036\276\261a\216=Dx7>\341,r>z\256G\276>\376\003>\203[J\276B\267\354=P\3467\276r\266\213\276Cf\343\274\325\254K;\235W\301\273\004\375h>s\\\333<\t\221\326<\220\370\205=[\010\200\276\335\026M=\355!j>\351\252\246\273\033\353\234\275\214\320!\2759Xw\276\013\247P>\225\000Q\276\245F}\276p\303=\275N\230\324=;%.>\344N\260\275\016\263\025\276\300c.>\021\006_\276D}[\275\224\304A=\037\237\364;\251\357x\276\2652\024=\200\023N>\312\256\362\275\371\211e>\323\351\352\275\241P4>\331tB>\023J\030\276h\234\217=>\016]>\374\336\230\275\371\251\210>nQ\366\275\255\322\213\2753,r>*\230\277\275\374M\023\276\005\314\237\275\177\236\214\275\252\323&>\036\243\243\274\217j\020>\036\217\360\275E\272\217\275n\306\334=`O\200\275\302\n\341\275\270\n|=\362\265\256\275\r-(\274\250A3>\027^\023\276\320\310\211<\330!\204=\222yZ\276R\003\020=\r\260\214=\347O\203\274SE\260\275\242\335o>\r\202^>\323 \344=\223\353\261\275\260\324Z\276\016@~>s\203I\275\301>]\276\256I\236=\346\251M>[&\323=D\203E\275CX\223\275\224\3548\276(\002\010>\367\312\"\2761\3131\276\002\202\">\'\344\002\275\3470\273\275y\316\\>\020@\027>s\321\205\276n3\213=\353\365\272<\036\326G\275\263\303H\275M\364N\2769\325\321\276@T/>\223L\352={\213p<\036H\272=Q\314\331<\201\216`=\203\221\270\275oO\343\275\002\224\207>\260_l>\204(J\276\372#\207=\367;\226;d\215z\276\245\247e>\263\344/>\211\204\276\275\261\365R=\1777S>\261K\202<\255t\244\276g\313C\276\323\233\036\2764\214\026\276E\260[\274\301\210\006\276\361fh>\326\255\307;\360Q`\276\342\334\013\276\024\212\035\276\351\251;\276=\261\325=\\W\014\276\271Cr\276\243|2>\216\360\333<nc\210=P\375\305\274\r\302\321=\261\007\017>\353H\342=|\206<\276f\230\221=\246\364$>\034/\370=\354\010\213\275\004\334>>\371\252\\\276a\342\033=\370X\350=\344\315\323=`\021\014\276\252*%>h\364\010>u\250\210=\233\r\274\275\2354\201\276\230\322*\276>\252\212=\253g\002>\r\310a>\325x\350<);P\276\231\006z<\244\367\316\275\271\253e>\224t\\>\377\n8=$\313\002\276\370\222#>\032r1>\307\031\255\2751\022\021\276c\264\014>\357\235\371\275\010\327\253=lcF>\225\212G\276\221\373i>K\263\n\276\363j\242\275$\3076\2759\345\221=g\r5\276\250xP\2767ZI\276&tk>g\345\312<l!`\276\345A\000\276\367\251*=~\332H=\036\335\265;\325G\263\274*v@>\303^\300\275|g\\=\341\327a\275 \240\211=4\020i\276*\010u>-\003G>\215J\203>\025\301\233\275\256%2\275WR\352\275\005\021\016>\016\342\\\2763\307\200=\030\355 <``;\276\250\264\032\275\2607\014\275\007(\344=z\314W>\272\343\352\275\354J\024>Yqk>\220st\274\375M\364=\200\324\243>\304\276\025>\260\246\006>\271\254e\276\343J\310\275\002\221\367=\224\025j\274tW\205<\337\020\301<\305b\335=\236\254Q>P>*\276\017)\311\275\251+?<\232\272Y\276!+\367\275Jt\365=(\273P\275\304,b\276\330\3008>\267\356\227=_R\024\275\013\241\037\276*Z\013\275\337\306\353=\316j\277=\274\375(>\345\315\204=\027c\257\275\355\220*\276\260\351N\276\277\024x>\302Eb>!k\335\275\\3\337\275\375\004\023\275\310\211\236\275,\357\"=&\017&\276\023\334\016\276\366\265c=\367\264\273=\377\337\357\275\221\215\222=\002D,<\364 \020>\273P9\276\2037\022>\313V\">\320\332)<\271\332\260\274Wv\035\275.lB\276\027\035\023\276\236\025\\>@\033\257=\315zZ>\240p\342<oqy>l\312s>\244\003\257=\333B\371\274G\373h>K6\264\275\325\216^\276\324*\016\276\342T\241\275\332\245\203\276\210\255\013\276\021]r=\007Dg>\342\260\022\276\"\215i>~}m>\313\216?\276>\342\206\276-(\370<E\307 \276*\330\227=\371\3319\276\207\343)\276\226O\213>V\275\370>\214\333\342\275\221\225\220=\325`\217=\005\t\372\275\3529\'\276U\352\323>\200w\274\275\2219\266\274\327/\263>V\006\365=\177\"5\276\223\227\245<\3175x\276\327j@>H\275e\275J%.>\301\310F\276(E\215>\357\264\203>O\333\254\273\372\027h\276\317\250->2\355\002\275\225M\203\2765\263\320\275\226\353\371={U\003=\371\002\271=\367\001\312<\224>\354<\n\251->\304tH>$\277\210\275D\031\200\275w\220\034>9\356\024\276\264\371\n>j\246\267\274^\204\315\275\3523n\276{\235\213>5TU>x?`\275\355L\t>\204\330=\276E\006\213\275\344D\226<\325<U\275\200\'\272=+\336\037\276\247\220$\275\221A\216>0u\235=\007\343L=\026\231\032>\344\177\341\275\271\251Y\276S\363\203>\3564\366;NI\304\274\314\275_\275\204\001B\276\337\217\010\276\nI\231=\3029\016>0U\002>#\276\334\274\002\246C=\367@\270\273-\363+>:\351]\276\301\276(>\031\031\274<\323h\303\275|\255\025>\261Z8=\301\300\027=\257\262@\276+%\200<\025Y\206\276\035]\347=fd0<\n\201\370=f\212\203=\251\363\235=7q\211\276lWM\276\372,\200=\262\343\217\276\235!>>W\230\243=\365&\305=\036\324\037>&9v\276sTg\276\346\212_=+\203\210>\344}\203=f+\224\275i\010\316<\332T\355\275t\227A=\237 I>C\360\036>\010S\007\276\226u\024\276|\032\301=v\017\200\276/\327\232\275\357\234\000\276\246Af\276\324\303 \276;\010U\276;\307C\276\271\327\024>\264\370w=\017i><\034V\336<\242=@=L\335i=\251\235E\276\264\r}<\352\206\000>\010k\323=\262\203\213=2y\231=\t\223);\361n[>y\242|\276\251\203\362\275\035_F\276\\)\025>:\016o\276m_P\276\361\212{\276\006\257\221\275\020\222X=\254qn\274-\3208\276\265!\017\276\210A\371<Q#2>\373\030\031\275\372\361>>\014\2748\276e\204)>\3739#\276\220\310\310\275u\022\312\272\206\312\336<\351\270S\274\371[\036\276\320^\333\272\326\244>>\030\215\374\275&\214\255\275N\\\220\276,G\206\276\336\253U>\370\n^>-5\304\274,\327.\276\313xs\276\264\2467\276\317r\356\273\'\361(>\r\226\r>[\363M\276\202&\331\275J\352h\276&\337B\274\001\224\014\274~\310^\276\353\256\333=\016\3450\276V\247(>\353\232\323\275A\017\373<F\0038\276\236k\367=\007z6\276/\223u=\033\2409\276,\312X>9n\017=\321\017\t\275:\036\364=5D2>\314\256c>\346Hh=G3\221\274M%\022\276\345\242\344\274\340M\215=\353R1>\365Z\253\275%\010\031>T\300\263\275K9,>\310u\t\275\274}\001\276\254\260\274=\005\310\221\276\221g\231=\376/\017\275@/\302\275\222\314\375\275\307I\272\2750:\253<Kre\276\211a\030>,\271]>\216\247\342=WC)\276\037\327\331=\311\177\346\275T)\231=\324\253\023>\n\262t>9\326\256\275\362D\205\276\237G\245<\1779\035\276=\371\035>\221\344\007<CF\201\276\222\355\300=\000\214\256=\227oC\276\331\211\001>\202\325\024\276T\214S=4\247\004>\350\277f\276\355\210\242>\343Z\260=\033x\026\276\366\366l>8\322\362=;\373\203\275\t6\321\275\361\247!>\003\263*\276Abo>3N \275\251\264\301\275dL`:\3128\247=_s+>\003\001\366=7k\262\274\374\327\004=(n\213\274\2775\247=\316\326\356\275\306\2122\276\302~\021\276\255\224\n>\252\363\374=J\033-\276U\273\324\275\221\223\335\275\341\332\336\274\245@\337\275S`\230=n\322v\275\303\262e\276JP\362\274\347\017M\275\313/ >\374\236\266=\3443\371\275+\350\031\276t\203\200\274\377\343\204\276\354\201\263\276N\310\263=Q\032\304\275\363\217\274\275\217\343\024=c?\342<S\345B\276\244\250%\276\346\257t\276\265\254\273=\207\272\t\276?\324t\275\230T\307\275\214G_=\0002<=\r\333m>\261\354\213=\270\3603>:e\255=\273\373S\275\200\352h\275\333\2669=\234\373\245<\352\014\251=$\314\377<\025\3117\274\271\005\223\276\333`J>xl\271;\013\253\220=\tC\322\275\276\026f\275\257C\327\275\003\267k\276\337j\350\275\305.\016\276\033%\214\275k\013;>\314QV>d>Z>\005\302<>\366&\022\276\370\305\010>\331H7\273\357;*>\2705\031\276)\215\323\274j\332-\2766\325\224\276\356\226g\276\373\215\264=\020\3143\276\320\010\253=Z\231N\276\322\030\347=\263\345\340=Y\341\\\276t~Q\276\t\031\315=\356\241\257=9\370\211\276\205\274m=\267g\036<\226\263p\276\250\t\036\275\322R\016\276\236\320\027\275\307L\013\276P\026\014>F\256\360;\254\265<\275C1@\275V\373\251\275FO\340<\034\314\214\275\274\371\362\274\010\235\313\275\365\271\202=}\352\r\276S7\331\274KO\317=\265\321H\276H\031\000\275\022\236\357\275jK\215<\262\242\t\275\337\000\017\276\030r\242=:\026\356<v\265\262=+x\304\275\347U\204=\203\257\315\275\245\340r>r\267Z>\350\317\026>\027J\221=\360\202\021=\033\240\333\273\323\372\351=\026\352\207\276A\nl\276\257O\213>\205\242\216=P\304\237=\376|\321\275\261\020\321\275\230\376l>\237\302p\275\276\374 \276u\242\177<\007\273\202\276\373Xb=y\316O\276\267\255\027\275\300\252V\275\320\3363>y\021f>B*Z\2762\305\n\276\217\325\343\275\'\223q\276\322\377\375=^\347\237\275\313HA\275}\203\033>\267\220\034\272JKS=I/\245\275\336\315\336\275\017{1>d\2116>e\253\203\276;\353a\276+\236\340\274TK\030>\\\362&>8I3>\366\277R>\306-\235\275Lqs\276!:\276\275\010\330\310=\314\2104>.\207T>\025\314\312\274\333V\317\275\346/g>j\257\214\275\271L0\2743\363\367\275,_\324\274\021\256\214=\310\010n<\364%\254=v\215v\276\037`\364=\276\246\002>3\370N\275\215\206\313={\226n>\312+\345=\2138\204\273\364z9\276\207\001\000\275\260b\">\340\242\205\275;s\036>\247I\376\275\237\315\332\273\324u\254=\217\3726<$\341\343\275q4a\276\"m\251=r\tp=t3\247=\005\241G\274J\037j=\337T\327=\353\332\352\275\231\177\024>2\260L\276)\t\357\275\030\250E\276\366\021\375\275\033\242w>U!\375\274\374\346\335=\"xl\276\035\224\002\276r\2023\274wX\336=\316HB\273\272\'\n>\014Y\n\276\231q\252\275j\000\306\274\024q$\276\306F{\276\367\272\'>\275I\307=\033u]>\204\305y>1~F>AQ\274=\214\372R>L\255Y\276\300\347M>x\022\010=\005\253\215\275`\357t>\000\223z\275\326\033\254\275E\275\001\276;\230\003>\251\346\026>\006\305\216\275\004p4\276([2>\177\303\025\276c\316\253;ao\033>\335\244\250<\335\270\353=\212\231\365=\005\215\202\276\223\327\341=\325\372\n\276u\374\004>\233\342\326=\320X\267=\246\310Z=\2024N=\300\0068\2765$\003\276\036\325\227=\322\023\361=\214\327%\276|iP\276\2703\360\275\227\214\022<\212\227S>\351^\353=\371\235L>x\320S\275\367<d=\271q\014=\331\371\304=\r\030\025>j\216\202>\346\361%>i\354\231\275s6:\276*\322T<V[\365=\016\250\254=\261\366P\274s\275\363\275\322\"\256\275R&\344\274\320\372\352<f\264\224\274\316w\334<\373\217\003>\212;\230<,LY>r\274\216\276\n@\204\275\323o:\275\317}\361<XR\035\276\342{\022=\311\265x\276\232\357\362\275\215\345K\276\026\271X\276\367c\313<\036\330$>C\010\272\275/\214s=\265L~\275q\327\262\275\302\256\006\276\374\224\004\276\37440>A\301\235\276j2X\276\\s\332\275]\004\016>F\363\237=\323\263D>\244\305\375\273\305\005\023\276\'\323I\276\2176\204>\334\300\013>1\313\263\275]s\005\276~L\006>\230`\361\275\272\030&\276\002C\032\276\345\223\217\275\355\251\217<4\372A>x\346\220=\263\377\367\275W\205k>:\014\037\276XO\270=\032\033\264>c\205\324=\016\243\376<LE\014\275\324\217.>\026]\345\275\013\223P\276:\322\020>\332p~=G\334\231<\340\374\211\276\311M\037>4]\222\276W\354\330\274K\316\347\275\027\215\207\276\273\331\213\276\224\003\013\276\330\255\010\275\033t\010\276\301$\246\275\031]\200\275\207\246\312=\006A\311;\217!\332\273\005/\212\275\353\002\261\275\344\026\250\276\036\373\022\275)\370\261\275<\325\220\276\250\217\320\275\370\261\237\275U\201/\276\021y{\276\022\000\020=B\306\265;\2310\326\275c.\023\276\372\326]>\037\323h\275\026(v\275\354\350;>V\250\241=\002\031\253\275v\312$>\326&A>\245\352\360\275\264\353+\276 >\000\276\332\3239=\246\'\024\274D7i\275\272\207\354;[D(\276K4&>[v,=D\345<\276\200N\213=\362\362\034>\007\234\267\274\367po\276t\277\343\274\207\037P\276Y%\211\274i\252>\276\r\306\034>\235\225\316\273\307_\313\275\301\374\020=\364\032\210\276\327\006\035;^\222U\276f\215`\276G\346\376<\006|`\276N\031\235\276l\366=\273/\231:<\025\022\267\275\362\302\265\275\342\366\252\274v\200\247\273\351s9=\001\3737\276\310*\273=\345\027E;\272\270\225<n\373g>\254\261\301;\002\347\215\273\320\260\323\2740sg<\006\322\007\275\371%\t\275u\254#>\233\265\242\274m\014l\276}\3276\276\367\013\201\274\177\371a>\205R\274={\r\323\275\236\003\031=U_[>\354\004*>!\2615>\350\225\305\275\261\304\206=B\355x\276\240\321\'>\320>\273=PP}\275\276s\245\275t\342^\276\3421\010=\237\364\213=vs_>\345&D>\203tL\276\301H!\276\261\202\206\276\234\333F=\313\363z>\355\311\216=\204\227F>\0253]>\327\002\314=\261\263\017>\003\304\017\276\006\206F\276P\330\225<\"\211;=\333\026\312=\200u\312=*\010i\276\020t\025\276P\231s=X\2027\276AHF>\360+h<\221\317\177=uLI\276\030\317\210\274[\371$\274\034\3755\276\n\0132\276\002\002y\276\211\371\231;\350\026\342;F\231o\276\023\321\230\275_\302m>\354&\272\274\357\241*\276p\215Z\275\026\033\364=\277\202+\276\210\034i\274.\333L\275\245j\206=\336:\032<\3304\016=.\223\016\276J\316\325\275i{\031\276\022\337\230\275\326\'\002\276V\313,=\326a\230=\000\327c>vw)\276\335\244\267=\364I\024\276\302\311\367\275n\372\020>n,I=\025\304j\274\n\244\024\276G\203s\276\271\302\244=ylA=\277\tv\276\376\000\214>\360\244\264=0Q\032<~u\307<\364&\227>\250^\203=\037\027H\276@5\031>:\266W>n:Q\274\353\221*>\020\320\376\275\316\216\210>v\236^<X6\n\276\206\000F\2767\332\255;\340\347\027>\237\374\237>\264\305\365=4\311\311=\262\227\227;!\357\247\276\210|`\276|8\203>\346\271\t\276\270\206{>\326B\205\276\024\035!\276Q\226\252>\026a\326>\254\235\243\276\350\324\300\274X\223\245=I\250\231\275+\222E\276\342\331\222>&}\005\273\276\253\\>\252\030\246=,+\315\275\010\031\252=\034\t\272\275`\214l\275E~\031>\005NG>"
      }
    }
  }
}
node {
  name: "FCN/dense_1/MatMul/ReadVariableOp"
  op: "Identity"
  input: "FCN/dense_1/MatMul/ReadVariableOp/resource"
  attr {
    key: "T"
    value {
      type: DT_FLOAT
    }
  }
}
node {
  name: "FCN/dense_1/MatMul"
  op: "MatMul"
  input: "FCN/dropout/Identity"
  input: "FCN/dense_1/MatMul/ReadVariableOp"
  attr {
    key: "T"
    value {
      type: DT_FLOAT
    }
  }
  attr {
    key: "transpose_a"
    value {
      b: false
    }
  }
  attr {
    key: "transpose_b"
    value {
      b: false
    }
  }
}
node {
  name: "FCN/dense_1/BiasAdd/ReadVariableOp/resource"
  op: "Const"
  attr {
    key: "dtype"
    value {
      type: DT_FLOAT
    }
  }
  attr {
    key: "value"
    value {
      tensor {
        dtype: DT_FLOAT
        tensor_shape {
          dim {
            size: 32
          }
        }
        tensor_content: "Wd\003\272H\005\252\273\240c\021>z\311\036\274\227T\362\275\377\215\237\275\224_\241\275\020}\024\275\010\313e>\230\211\036>Nl\327\275\377sd\275\231j\206\275r\221w>S]c>{\257\005\276\300e\214\276@\2223>\223\017X\274\331]\t>\004n;>\360\266\n\273\325\356\340\275\327N\325=8\351\206\275\361\003\215\275N\226><\035\202\203\275\264{\242\274>\356\263\273\342=\334\275>\373$="
      }
    }
  }
}
node {
  name: "FCN/dense_1/BiasAdd/ReadVariableOp"
  op: "Identity"
  input: "FCN/dense_1/BiasAdd/ReadVariableOp/resource"
  attr {
    key: "T"
    value {
      type: DT_FLOAT
    }
  }
}
node {
  name: "FCN/dense_1/BiasAdd"
  op: "BiasAdd"
  input: "FCN/dense_1/MatMul"
  input: "FCN/dense_1/BiasAdd/ReadVariableOp"
  attr {
    key: "T"
    value {
      type: DT_FLOAT
    }
  }
  attr {
    key: "data_format"
    value {
      s: "NHWC"
    }
  }
}
node {
  name: "FCN/dense_1/Relu"
  op: "Relu"
  input: "FCN/dense_1/BiasAdd"
  attr {
    key: "T"
    value {
      type: DT_FLOAT
    }
  }
}
node {
  name: "FCN/dropout_1/Identity"
  op: "Identity"
  input: "FCN/dense_1/Relu"
  attr {
    key: "T"
    value {
      type: DT_FLOAT
    }
  }
}
node {
  name: "FCN/dense_2/MatMul/ReadVariableOp/resource"
  op: "Const"
  attr {
    key: "dtype"
    value {
      type: DT_FLOAT
    }
  }
  attr {
    key: "value"
    value {
      tensor {
        dtype: DT_FLOAT
        tensor_shape {
          dim {
            size: 32
          }
          dim {
            size: 16
          }
        }
        tensor_content: "\234Q\207\276s#\232\276\3047<;\027d\357\275\277\211\207\276\312G->S<\215=\334!S\276\320\321\222>r\225\302\275\030u\247\273\232\211\257\276P\237t=\330\036N\275\014\207:=\257\313*>Ar.\275\3650\261>$\rx>\026\\\251\275\335\022\260\275s\372\222>\271C7\276\310\002-\275\361$Y>\034\373\034\275\244k\215\275\323\351W\276\371?F\276\013!\262>\265\330Z\276\311A\232\276^\026B\276\276\265C=\237n+>\255>\031>\213\306\010>W\226,\276H\005\212\276#G\026>\243\354\201\276\314\006\270\275Y\317\225=\376~\227\275\361\222I=\242\335|>\320\241\276\275\222\346\237>\260&\373\275%\210\210>\347\\\223>\014\025\024<+\'\022\276\232\376\356=\233\341\356=\226\355\206>\003\336\010>\302\010\231=\345\373G>\014\222/\276vY\221>\255\026\035>9\022\r\275\216\032h\276\343h]\276\334u\215>T\221\206\276\224\3553>\225q2=/tc=\342\225\232>\030\224\233>\210h0\275\206\023\260>y\230\220\276C,Q=g\007\255\275\275ug\275\2343\206\276,M?\275K\216*\276/\311\336=W\305\371=\235\245X=\3020\022\275\260o|>\223;\211=\361[>=Rf\231\276\267\326\250=\232\247z\276\013\227\223\276\214\242\t\276\275\204\025\276.Ui\275\017O\243\276V\236\265>\275JX>9\262\333=\306\347\261\276:b\004\276#T:>@^\t\276\332\273\215>\323\217]>\0307\016\276\002\034c\276\256i\\\276\007\265Z\276\023\023\274=\325\364{>\311\362O\276d\215\021>t\272t>\372\324\202>\370\212l\276\252$\222>^\300V\276\017I\021\276\252\334\262>\350r\321\275r\322\272>\347\2278>\311%\207\276\257\035\253=E\327\215\276\304\330\005=\242.\200>\312\001\342<\373\255\022:\300\345\276\275\026\223\275\276jo\242\276\251\037\227\276kz0>N\031\205\276\243\235\271=9\363\260\275b\275Y>?X\240>\307\363\252>\263^`\276\365\307\031\275\347\017\000\275\255V\201>\221%\\\274\237\371J\275\351!\333=\325\301\304\276\202&\005>\226\2611>Y5\336\276TO,\274\335\350\224\276\236\336/>xQ\351=\375\356\t>R\350\020\276\016:\022;q\371\316=\230\271~\276\261\3246>\305\346@\275M\0324\276\237O\260>\314\314<\276~\021\363\275R3\332=\322l\034\275\206+\315\275\177\367\304\276(\t\342\276`\307\317\275\3049\002\275\007;\252\276\237S\316\276y\\]>pS\276;\343\312\243\276\227\345\212\276\322\317)>\025\301,\276k\314\225>t\315\004\276\303g\213\275)\316\325\274\340\355\300\276\373f\243\276+\227\245\276\337\031|>\256\300\267\273=\226q\276J\322\253\275\307\372f\274\207\325z\275:\305\224>\252o\255\275\257#h\276\001z\207>\035\364M=\350\234\324\275\246\263\027>\245\010r\276/g,>\271\327%\274i\3365=l\274*\276\025\211:\276\260\366|\276\315a\360\2758\247L\276\201\216\246\276\371$\271\275K`\023\275\211\247\352\275\340k\325\275\223\000\221\2765_\266=zcU>7\303\321\274\017\225\000>\345s\217\276\201\245\017>\006X\331=S\242\367\273)\024\302\274\225^\230>\241\276d\276@K\307\276\276\2679\274|i.>\032_\272\276[\224\365\275\2002\344\275\n\200\236=\' k\275\256Sp<\003e\330\275\351\321&>\217\343/>\372\302.>\366S\325>\337l\357\274\317\356\322>B\327>>Sd\217\274O\005#>E\305\303>\032\274\216=\240\345\202=\271\324\210\276\347\217\276\276\342\372\205\276\213\271)\276@\247e>\013\010u=\236g\242>\256V\000>\022\216#\276s\334\207>\367\021\353\275\346G\271=j\234Q\276\'\340)=@\327\246\276\036\260T>\202\352L\276\207,\322\276\013\252\370\275\231c\244<\202\031\354\275\340\260Z\276\262\253\244\274x\324\034\275\313\024\217>,\266O\275\200\372h\276\227\307\233\276\323b\366\2752f\006\275\014\033X\276\204\254Q<\247\214\212>\201o\010>\215\330F>\247\365>\275\025\276Z>:\374i\276\322\3306\275\305\032\227>\r>\205>W\370\210=\301R\347;\221\251\210\275\222KF\276\314R\255=G\026\315;\240\205P>\3678\206\276\355E\017>\364\325`\276\313\277\032=\330g\005>\250c0\274TQ&\275N!\302\275\252\247\177\276+\254\237\276\312\'\353;\372+\253\276\306e^\276\376\376\030\276\361\013~\2766>\300\276i\030O=\327\372\221<$\377\331=\313\234\365\275j\341\t>\302\246(\276\365\327\031>\327(a\276\272K\263=H.b>\314M1>r\243\204>\372&8\276k\341\212\276;PF\276\n:d\276\312\263\207>\n2\232>H\325\220\275I\t\200\276m)\007>{\342\220>e\375*\276=&\346=\230O\203>-\375\300=\217c\203\275\3376L\275\206y\021\276\207,_>\367\241\036\276Y\271p\276_5W\276\311_\216\276\335\232\212\276\005\032\205\275\026\255\316\275\327%\022>\216{\207\274U\345\201>U\352\020\276Pg\245=\316\342N>]\227*=\315\334\311>\211\2127>\0365\007\276(\216\017=\305\377y\276\344\222\227\276R\236\205\276\277_\216\276x\220\t>\225\2118\276\314\225\022>w\364;\2759\177\215>j\331\363\274K\177O=\376\342\224\276\226\246l\276\033\366\252\274s\301%=\241\221y\276\314\351\340\274\256\276\310<\212Q:\276V\254\233>\370\316\200>t\345\203>\344\266:\275Rl\010\276\210?/\276#\321&<2#)\275\340A\020\273\001\202\247>\234V\217=B\033~>H\241\n>2\327\n>\264\324v\276O#\233\276:\024M\276\250\203\247\276:c\201<)\t\363\275\016\2606>y\'\250\276\302\360\236>Q^<>o~\253\276<\226\233\275\244\032K>\303;->\376\246s<I\013\353\275\000\220&>\206\270}\276\267#\037>\260f\234\276\016CO\276\245\305V>YLs\275/[\363=\334\321\201>GK&\273\321\264{>8\010\236=\301!\250=9\254\237>BPB=\350\3737=\362\357\034\275)\214\214>Z[\276\272\331\350\020\276W\007P>\016|\244>=\n\371=/p\222\275\371\020\205\276\310\234T\276\333\336<<\035Z\272>\327t\030>\271\350E\275K\253v\276\246!\324\275\314a@\275v\370>\276<\257z\276\003\214,\273\316\371Z\2769?\256\276\360`\225\276ZOB\276\235\360\203>u\246\t\276\203\353&>YW\235>{\371\221\276\303\340\222>\201Aw>>H>=\342I\242\2769\264/\275\367\226\315\275{\264@=\300\323\221>-qj\276\247\352\210>3\302\257\276\227\034\036\276\017mx\275\350\027_\276\224\215\225>\304\347\036\276<\374\250\276\231\224\031>\004\273\023>\327Y\321=\363\211\202\275\025%\224\276\245;\204\276`\276/>\026+\034>\307\315\222>\255O\214\276\227\371l\276\311\303Q>\303\014\364=\357\273\226\276\255J^>\"B~=\0043\257>\234KY>\357\241\237\276\226\031\267\275\200\3271>\205J\207\276\033\252\234\276\351s\263>\222\242\355=F\244_>\344\304\005\275\363\314\271\276\223\200\341;\303\302C>\020sA\276\216`\357=\332\327S\276\277\0304>\213a\206>\221\373\247=O&\236\276\004VZ>\2011&\276"
      }
    }
  }
}
node {
  name: "FCN/dense_2/MatMul/ReadVariableOp"
  op: "Identity"
  input: "FCN/dense_2/MatMul/ReadVariableOp/resource"
  attr {
    key: "T"
    value {
      type: DT_FLOAT
    }
  }
}
node {
  name: "FCN/dense_2/MatMul"
  op: "MatMul"
  input: "FCN/dropout_1/Identity"
  input: "FCN/dense_2/MatMul/ReadVariableOp"
  attr {
    key: "T"
    value {
      type: DT_FLOAT
    }
  }
  attr {
    key: "transpose_a"
    value {
      b: false
    }
  }
  attr {
    key: "transpose_b"
    value {
      b: false
    }
  }
}
node {
  name: "FCN/dense_2/BiasAdd/ReadVariableOp/resource"
  op: "Const"
  attr {
    key: "dtype"
    value {
      type: DT_FLOAT
    }
  }
  attr {
    key: "value"
    value {
      tensor {
        dtype: DT_FLOAT
        tensor_shape {
          dim {
            size: 16
          }
        }
        tensor_content: "\2133\026\27676\005\276\317\026\024>\373\213G\275\031\221\332\273\346\336\347\273\310\217\"\276U\243b\275O\2004\275N\246\233\274\005\226\221>\222\220\351>\233\210\310>X\001\250;t#\312>\010?\321>"
      }
    }
  }
}
node {
  name: "FCN/dense_2/BiasAdd/ReadVariableOp"
  op: "Identity"
  input: "FCN/dense_2/BiasAdd/ReadVariableOp/resource"
  attr {
    key: "T"
    value {
      type: DT_FLOAT
    }
  }
}
node {
  name: "FCN/dense_2/BiasAdd"
  op: "BiasAdd"
  input: "FCN/dense_2/MatMul"
  input: "FCN/dense_2/BiasAdd/ReadVariableOp"
  attr {
    key: "T"
    value {
      type: DT_FLOAT
    }
  }
  attr {
    key: "data_format"
    value {
      s: "NHWC"
    }
  }
}
node {
  name: "FCN/dense_2/Relu"
  op: "Relu"
  input: "FCN/dense_2/BiasAdd"
  attr {
    key: "T"
    value {
      type: DT_FLOAT
    }
  }
}
node {
  name: "FCN/dropout_2/Identity"
  op: "Identity"
  input: "FCN/dense_2/Relu"
  attr {
    key: "T"
    value {
      type: DT_FLOAT
    }
  }
}
node {
  name: "FCN/dense_3/MatMul/ReadVariableOp/resource"
  op: "Const"
  attr {
    key: "dtype"
    value {
      type: DT_FLOAT
    }
  }
  attr {
    key: "value"
    value {
      tensor {
        dtype: DT_FLOAT
        tensor_shape {
          dim {
            size: 16
          }
          dim {
            size: 8
          }
        }
        tensor_content: "\213\341\205=Ox\230\276\t\007\241>s\213/\276N\254\315\275\252\206\001\277M\003\231\276\344\363\303\275\017\215\007\277\315c|=9+\303\276hy\223\275\340\335\250\276\027\332M>\205\233\242\276\242%\220\276/\010\274\276\307\274\245\275\340T\230>r\2603>#\266\237>\267\261Q\276\335\013\375>\350\356\320<\312\026\031\276\242\365\374>\264\005\221\276\251r:\276 \347\341=\3545\375>*\001\206\276\313\300Z\275,\262\213\274m&\331>\274\023\335=\214\021\247\276\312\213\320\276\274B\263>\3449\224;Zh\016\277\341g\232\275\377\300\341>\367\026\r\275,l6=M\311\210>#`\303\276\023~\230\276\331\210\335\274JE\231\276\3772\255\275\2259\306\276\220\263z\276\016\034\220\276\340(\t\276\204\253\013\276\361\266s\276=\315h\276y\306\320>W\013\335\276\214\355\237\275bX\231\276)\306[>\006:\270\276\230\316\025\276\213\354\377\27619\274>\203;\224\276\300\265\001\271\364\343\361>.\010\302\276\365`\200>\t\244\230>P\276R\274\367\203\271>@bi\276,\370\304\275#\277\307\2735K\n?YHh\276\264\347\272\274\263\263;\276\362ne\276\343\334\230\276\227H\026>\270c\034\273\331\346\004\277\231\354\267=\247\006\027?\3269@>~\'f>\023\265\256\276}\324\262>\312\274\010?\275mR\276\017\346\351>#s>=ow\023?P\370w\276\353\316\005>\220Q\230\2768;\274>\304k\226\276J\205\260>\016\3705>^\323\315\276\351Br>\350\255\307>\3506 \2764\330\363=p\037\320>\260\351\217\275:\373\270>\270\244\301>\023]\003\2771\316V\276\207&\316>^\341\217>\017^\300\274\026\365\222=t4\217\273\246\017\007?68\376=\262\215\232\276\200\217\231=hZ\306>\'oA=_6\212>?\016\202>"
      }
    }
  }
}
node {
  name: "FCN/dense_3/MatMul/ReadVariableOp"
  op: "Identity"
  input: "FCN/dense_3/MatMul/ReadVariableOp/resource"
  attr {
    key: "T"
    value {
      type: DT_FLOAT
    }
  }
}
node {
  name: "FCN/dense_3/MatMul"
  op: "MatMul"
  input: "FCN/dropout_2/Identity"
  input: "FCN/dense_3/MatMul/ReadVariableOp"
  attr {
    key: "T"
    value {
      type: DT_FLOAT
    }
  }
  attr {
    key: "transpose_a"
    value {
      b: false
    }
  }
  attr {
    key: "transpose_b"
    value {
      b: false
    }
  }
}
node {
  name: "FCN/dense_3/BiasAdd/ReadVariableOp/resource"
  op: "Const"
  attr {
    key: "dtype"
    value {
      type: DT_FLOAT
    }
  }
  attr {
    key: "value"
    value {
      tensor {
        dtype: DT_FLOAT
        tensor_shape {
          dim {
            size: 8
          }
        }
        tensor_content: "\343\257\325>\025\356\310=IG\320\273\340\276\r?\242\240\327>\032+\373=\030\033\010?\0162\365>"
      }
    }
  }
}
node {
  name: "FCN/dense_3/BiasAdd/ReadVariableOp"
  op: "Identity"
  input: "FCN/dense_3/BiasAdd/ReadVariableOp/resource"
  attr {
    key: "T"
    value {
      type: DT_FLOAT
    }
  }
}
node {
  name: "FCN/dense_3/BiasAdd"
  op: "BiasAdd"
  input: "FCN/dense_3/MatMul"
  input: "FCN/dense_3/BiasAdd/ReadVariableOp"
  attr {
    key: "T"
    value {
      type: DT_FLOAT
    }
  }
  attr {
    key: "data_format"
    value {
      s: "NHWC"
    }
  }
}
node {
  name: "FCN/dense_3/Relu"
  op: "Relu"
  input: "FCN/dense_3/BiasAdd"
  attr {
    key: "T"
    value {
      type: DT_FLOAT
    }
  }
}
node {
  name: "FCN/dropout_3/Identity"
  op: "Identity"
  input: "FCN/dense_3/Relu"
  attr {
    key: "T"
    value {
      type: DT_FLOAT
    }
  }
}
node {
  name: "FCN/dense_4/MatMul/ReadVariableOp/resource"
  op: "Const"
  attr {
    key: "dtype"
    value {
      type: DT_FLOAT
    }
  }
  attr {
    key: "value"
    value {
      tensor {
        dtype: DT_FLOAT
        tensor_shape {
          dim {
            size: 8
          }
          dim {
            size: 2
          }
        }
        tensor_content: "\247%\257>P\237\016\277\033\366\310>\365\321d?\327o\313>\267:\301>\213FM?\370\007\017\277\3254W>0\030\030\277:N\027\277\264\035\304\275\315G\255=\3646P\277\273/\027?L\213\177\276"
      }
    }
  }
}
node {
  name: "FCN/dense_4/MatMul/ReadVariableOp"
  op: "Identity"
  input: "FCN/dense_4/MatMul/ReadVariableOp/resource"
  attr {
    key: "T"
    value {
      type: DT_FLOAT
    }
  }
}
node {
  name: "FCN/dense_4/MatMul"
  op: "MatMul"
  input: "FCN/dropout_3/Identity"
  input: "FCN/dense_4/MatMul/ReadVariableOp"
  attr {
    key: "T"
    value {
      type: DT_FLOAT
    }
  }
  attr {
    key: "transpose_a"
    value {
      b: false
    }
  }
  attr {
    key: "transpose_b"
    value {
      b: false
    }
  }
}
node {
  name: "FCN/dense_4/BiasAdd/ReadVariableOp/resource"
  op: "Const"
  attr {
    key: "dtype"
    value {
      type: DT_FLOAT
    }
  }
  attr {
    key: "value"
    value {
      tensor {
        dtype: DT_FLOAT
        tensor_shape {
          dim {
            size: 2
          }
        }
        tensor_content: "D\352\026\277D\352\026?"
      }
    }
  }
}
node {
  name: "FCN/dense_4/BiasAdd/ReadVariableOp"
  op: "Identity"
  input: "FCN/dense_4/BiasAdd/ReadVariableOp/resource"
  attr {
    key: "T"
    value {
      type: DT_FLOAT
    }
  }
}
node {
  name: "FCN/dense_4/BiasAdd"
  op: "BiasAdd"
  input: "FCN/dense_4/MatMul"
  input: "FCN/dense_4/BiasAdd/ReadVariableOp"
  attr {
    key: "T"
    value {
      type: DT_FLOAT
    }
  }
  attr {
    key: "data_format"
    value {
      s: "NHWC"
    }
  }
}
node {
  name: "FCN/dense_4/Softmax"
  op: "Softmax"
  input: "FCN/dense_4/BiasAdd"
  attr {
    key: "T"
    value {
      type: DT_FLOAT
    }
  }
}
node {
  name: "Identity"
  op: "Identity"
  input: "FCN/dense_4/Softmax"
  input: "^FCN/dense/BiasAdd/ReadVariableOp"
  input: "^FCN/dense/MatMul/ReadVariableOp"
  input: "^FCN/dense_1/BiasAdd/ReadVariableOp"
  input: "^FCN/dense_1/MatMul/ReadVariableOp"
  input: "^FCN/dense_2/BiasAdd/ReadVariableOp"
  input: "^FCN/dense_2/MatMul/ReadVariableOp"
  input: "^FCN/dense_3/BiasAdd/ReadVariableOp"
  input: "^FCN/dense_3/MatMul/ReadVariableOp"
  input: "^FCN/dense_4/BiasAdd/ReadVariableOp"
  input: "^FCN/dense_4/MatMul/ReadVariableOp"
  attr {
    key: "T"
    value {
      type: DT_FLOAT
    }
  }
}
versions {
  producer: 175
}
