node {
  name: "input_input"
  op: "Placeholder"
  attr {
    key: "dtype"
    value {
      type: DT_FLOAT
    }
  }
  attr {
    key: "shape"
    value {
      shape {
        dim {
          size: -1
        }
        dim {
          size: 25
        }
      }
    }
  }
}
node {
  name: "FCN/input/MatMul/ReadVariableOp/resource"
  op: "Const"
  attr {
    key: "dtype"
    value {
      type: DT_FLOAT
    }
  }
  attr {
    key: "value"
    value {
      tensor {
        dtype: DT_FLOAT
        tensor_shape {
          dim {
            size: 25
          }
          dim {
            size: 64
          }
        }
        tensor_content: "\234\031\211=f\243\253\274,I\267\276\024,j\276\341\232\214=vV\205=\236\304\207\276LNs=g\310\327=\027\225\201<\344\0165>\'\036\023\274{p\361>\301\025\211\276f\2122\276\363ot\276+\310\364\275=\3354\276\356\001\363\2737d\211\276/\3062<\317\007\306\271\204\262\244\275\307\344/\275\365\036\204\275\323Q\371\2749\255\203\275*\334\274<\205\262\271\276]\023\253\274\260\240\025\276\216\200\177<(\201\360=\370X\301\275c\325\215\274&av=\267F\202<cu\027\276\201\260\204;\342\021\343\275f\370\266<\017\357A\276\337\224\343\275\024\t\216;\346F\226<\007\256E;mf\200\276\352/\013\276\031\327h\275\346\260\220=n9\232=\225/ \275\264)\256\275\266\321\331\276\035e\267\276\331&&\276/l\352\274\004\255\352>/\3336\273\213\257A\276\352e\006=(\271}>\232\032\030>R\234(=\215\317\303\275\216\177\371=\272\302n>4\204\205>@k\035> \301E\277\366\014\203>\376\345\005>\370\337O\276H\316\241=\333<\223={\003\001>\200!b\277\265\031\334<\tp\027\276\227\014\266=\241t7=\233\024\235\275\032\377\221<\030\022j=0\366\354\275\201\355o\276\372;\346>W|\010=\200\215\204\277H\226|\276K\\\216>D\351@\273\366$4>T\376\322<\242\201R>\242W[\276\265\271\'=\322 \022?\003Qf\276-\226\235=\325\n\035\274\001R\021?B\375}=\256U\217>\\S\233\273\027-\267\276<\250\200=-\332\n>\335;\326=c\343\265=\211\003\335\275\274\364\026\275n\326\241>d\014\263\277WA\317>\275E->UN\321>q\342\262\275\371e@\276\205\017\221\276\252\016 \277\302\206\330\277`\376\337=\260\266\372\275\357L\202\275D\206x>\010l\202=P\365\223=\232_\243\275\306\245\274>\334x\013\276\n\2521>\225\337\207=\364\261\325?\032\"\010\277\215i\352\271\377\007\250>\347\201\217\27520T>&d/??P7\277\306\315\024?O\221\306\275j\226N\274H\245\246\274\004\345\215;\020\226i\277\325\323y\274tH\330\277\355KQ\275\330\274\266=\236\277Q\274\276\206\257>\253\362C\275\311d\221>\272\322\265?C\2736\276\360\001\353\277.\374\022\277\027b\036\276]\347\016\2776f\206>b|\272\274\270]\255\276\353\235\300?,9\304\276\2036\006\300\371\247\363>\360@\315?\373\373\007\274\273\235\211\275 \216;?\271V\302>S8q\275\321\335O\276\365\264\n?\311\025 >\t\317\264?\361c\265\275}t\200?\272\207\210>\271@U>\373t\005>\030N\327>\375G\257\277t@_?\224\231\245\276-\321\237\276\005\363K>\247\255\257\275\223\311\'\2741@\300\273\357\325\003?\035\217c\276\317\240\337\274\265\236i=\243_\276\276\213\230D?t\361A\275\332\304\347\276\251\377\274=\202\177\331\276\"P=>\361GF\275\366L\315=\230%\260\275\262\200\234\271T\365\332\274\010,\034>\330\341{>&d}\276\232Nz\275@\324\037\277\264\374\000>\374~\352=Jg>\276F\370\326=\324\340!=\031\302Q>n/1?\337\002\346\275\375\250`?\024)\244>\273\317<\276\t\355\337\276\266\203\025>p\014y>\230!\013>\240\232\235?\255\266\334\276\r\205\317>\263b<=OF\255?\316\341C\275t.\204\276\331q=>\374\333\252\276\356\321\264>/\352\034\276\212\235\350\275\0014\213\275\256L\362\276\261\250 ?8\017T\2764\374\253=\031\026\224=\244!\356\275\235?9\275\342\221\356\276\340\344\240\276x\021^\277\002E)\276Q\204W>\256\320\303\273\257\215k\275\366\223\247\276h\237\033\275;91=\277*\203\276\276\326\210\274-\362<=#\256\262=g\257\232<k(\370\274\336Z;\277@M\371\272]\247^\276H\344\225\2766\031\"\277\363\227\200\277\276i\023\276\213\225\020\276\364U\211\275\373\030\\\2766\37009\026\312|\276\276n\367\273\016\336\033\276\273\217\222\2761\013r\276\217$1=5@\177\276\325\232\245<\324\217\213<\206$G>H\342\003<\233\025\355\275gO\363\274+\3639\276.U\315\276\304\270\032\2763[\201<Nd\014;@D\220\276\311\032\376\274\340\357<\277\367\017\331;\204\2116\275#\350\246\276*\255\361\276n\227\226;\020\241\366;\230\356\222={\266\336=r\022.\275\312\032\004>\253\232\245\275\200\320\354\275q\333\207=VW!\276\264\231\224\276<S\354=\300U\006<0\002(>H\275\217<\n:\014\276\261\024\222\275\277%8\276\263\303\n\277\315\002\007=\3631V>\'%\225=\005\347)>\242\033\034\276\017\272\311\275\t\003\241=\307\014\326>\331\n\255>;\007n\275\322\376\210=R\205)\276=\236?\276P\342\214\275Z$>>\313\305@>K\020\271\273\322\351\\=;-\254\275CAC\277\323\371\000\276/eJ>\2504\034\275\235\263\262=\302X\362<v.m>\023\243\207=\261\"@\276\224\240\"\274\273\213 \276\243\030\224>t\017\357\275\220\007\027>\352\210\013\2768\032\253\274}4i>s+\253\274\202^\272;\026\036\325\275\035\267\257\276`\347\205\276\240MQ\276\227\035\024>\275\\\231\275\037\177%\276d\310\212>\370$\357\274*\004*\276c>\251\2768t>\276E-k>t$\216\275\305\305^>A\346\220=\276\010\205\276m\2558\276\352o\232<5\261`>\004\254\r\276\322,E>\001k\222=v\036\361\275$\216\002>\346\342\256=`b\307=\r\311\237=S\241H=\214\'i>}+\010=I\352\271\2753\365\234\276\202v\201\276c\253$>\177\333\027>\026V\272\275Y\335\216\276\304sy=z\230\224>m\364\351=m\270\314=D\237\027>D\367W\275\274\306\246\275\364\265\r>\"\255\031=\346\337\200>\236\362\022>\307\036\333>\314\275\213=G\312\215=o\025\335=Y\276@\276\207\231\251\276\203\352\277\273\276\370\226=\266\335(\276\207<\304=\220\355\275=\360\257\250\275{\006\203\276\240\3732\273U\026\321=^<\352\274$)2>H\352\337\275\271\017*\277\002\234\302\275\343O\026>\014Z\235\274\237$\r\276\356M2\276%\305&\275\"\344V>\250\014\331=N\303\027=x^]<\3772\232\274\221Q\030>+\367S\276\233TP\276\316\3726>\217\247\202\276\210\353\221=t\003\262\275\256\2044\276P\016\030\276\361\2035\275\311\021\203=Fi\372=u\002{>\373t\316>g\351m\275Ci\016\276\t(b>\003\372*\2752\300\234\274\007\225\317\276 R\330\276\374\212\224\275\014\313J\276\235\034\032\2765\307\r>\0037\250\275aZr\276\266\000\202>\026}\374\275\255O8>\000\231\033?e\223\263=\264\034\211>\207\256\343=`\254\341\276-\202\002\276\030r\014\276\252F\270\275\377*\033\276\001o\221\276D\355\017>\t\n!=\326?\234\276\211\247f\276\343#\005>\001\250*\276-\204\347\275\037\271M=]\244\242\277\315\216=<o^v>;\205S\276\213;G\277qO\324=\300vM;\034\331\335=\267iy\276\310\357\277\273\234\0078\275psf\276\033\025\225\276\215/\210>\255\270\357=\022\326\254\276\363\3357\276\023\"m>\332B0=\245\037\236\276\005\327\310\274\320\313\001\2769\031\254>\257\300\025\275m\013\237\275\352\233\367\275g<)\2763\032u\276\261\327\315\276n\207\263=\r\304\372<\016 !\276\361\375\020\275\030\367\221>\204\232\236=\260R\000\276\256!b=\230\267\327\274?\227\200=\202)\200>\023\2726\274\270\255\001\276\366\251&=\330\375\265\272\322&/>x\200\250=h-\r\300*\306\366\271\351\242\330\275k\014\364=\315\223\t\276\315d*\276\274O7\276,\351\022\276srY\276\361\306\233>\351\251k<\222\253h>L\330\025\275\036\315@\276]\243\024\275\225\344!\276\340\225\215=\206\254N\276\337\303\021>qF_\276\345\306\246\277T\300\212\276\232n\327>\342F\300<\020n8\276J\026Q>mj\n>\334\255A>\002{\250\275\027\023g>C\366s\276\370\342r>s(\035\276Js\300=J\266\373<1*R\276O\023\003\276gb\375\275\253#\371\275\002\273\240>\357\010^\276\031\212\345=\323\211\263\276\337C\305\275\274\rO>\247\330\003\275\r\344~\276Q\320\002>\202\214\355=\245\257\376=\3443`\276\ti\302\275\347\236\204\275\324I\267\276@\027\031>\206\335\025\276[\004\320\275\325\330\017\275:\271g>\025\3202>\035\217\222<8~\304\275F\226\241\275\304\340|\2754\013I\277\242\251\004\276\010\201\331>\260\006\356\274\t\031\310\274\003\262<>\207\362\n>\351\203\026\2769P\305\275\271\225\017?@ \210\275\302\023\002\277\343\324\265\275\357\344\200>\002\255\304;\271_\205\274\206l@\276]\366\252\276\360\r`>\317\215N>\236\255\317\276EH\267=\023\"C?-\212s>\202\021\261\275=bb\276]\322l\276\2034s>\3663\001\276s\000\233\275d,%=}\206\005>\022\303\327<3\3761=\022\371\213>In\031\276\266\231\373=\363\214\373\275\005\360\242=\362_\330>b\343\262\276\215\353X>\241k\001=\\\016p>\222\260R>L\256\343=\2426\026?M\373Y\276$\217\372\275\331\200V\276\024A6\276\315\277\233>\254w\202\274\177\240\372\276\264\"\220\276\331y\375>\346\273\207<k\211/\276&\020k>\302_~\276\261\353\t>?\034G>R\2238\276\023\001\223\275\274\033\344>\225eL>q\357$\277\352\235v>\'|\202\276\216\316*\276\264B\006\275e\304\024=\014\245\255=\275m2\277\005\302\031>\3108 =p\343\342\275\345O\"\276\033S\007\276\207B\340\276\376\344\241\275\243q\260\276Q\244\232\276{a9>\332zY?C\373\347\273\301\304\031\277\361\002\371\275\301J\200>:\023\026\275\215=-\276\306F\216=\351\2454\276\336(\271>\377\375b=\3538 \276\267\321\272>}\261\006\276\251\304\326\276~]s\276\330\340)>\374\373\">\231\273\333>C}\367\275\271\002\032>k\302\027\276P\334\301=q\234R\273\243F\'\272\266N\364\275N]\000\276i<\\\277\262\213->\251\266\305\274\322M\023\277\316\227a\276\251c,\276UrV>E\333\004>m\216\374?\247\265\200>~w\'?`\371\203\276\213t\256\275\272\014*>\377z\253:\372\234&>\200\021&\276\277\206C?\000L?9\317>\017\275\3177\027\276S\343\003?\353\206\261=B\221\022>\n4\032>D\264$<\2113\013\300;\371\020=C\371\303>\354\270\262>\014\0167\276\356\312\201\2779I\312>\240&f>Ud\210>\2334.\300[I\343\276X|\356><\235\026>\347\3023\300Ut<=)\320&\276\334\370z>cb\230?=&x>\245F\237\275\360\304\260\276\034M\271=\000Z\026\275\315\377\030\276H\361\266>\342S,\277\234\367\014\275z\2049\276C\200\252\276\274\303\031\276s\262\304>\301\023\210?\213S\370\275\037eM?\323J\204>\302\237\335>\371\r\325\277\036\212\n\2765\331\026?\001\332E>S\001m>\312\343\301>^W\037?\272\006\342>\366\311\017\277f\240\315\275\037\271G\277\307\032u>/\264\347\275\231\203\344>\345\036\326\276I\177\\>\014H\023>\230\016\265\275?\003\n\275\003\033\332\277\207\334n>O5\264>\342\022j>\342\336m\277^\274@\276v\034\224>\355\211\003=\274\000\275\275\032L\257?\"\231\021\276\204\215%\300.\311=\276\303\360O>\231\233\214?\256k^\277\337L\'=]4\206\277\206%\315?\034\037%?\177R\251\277\0022\t<\374\300\331?\204\366\232=\315\345\244=\016\004\262\275\251\302^\277\346\266\273\276i\236i\276+d\025>\np-\2755\223\245>\251M\321\276\332\005\"\276\3551\301>\2141w\276\311\277Q\276p\354\300\274\361\301\311>\264\306!?\330\256\242\277if&\276\347f\235\275i\007\214\276\244\245\020\277\rk\207?^\377Z\275\'\254Z\276\300$\250\274\0141N>\334\272\225>\213x_\277U\207\212\275\004\020$?\365\022`\276gm\273>@\222\245=\351\215\255<\264\255\001>Fcw>\263u\034>x*o>\325\302L=7P\375<^\027\023@\203?^>f\341\023\277\030p\233\275\027K\222>\330\272\275\275\231\254\207=\356\212r;VzO=^vQ\277\021_\376\2755\017\246?>\267\t\276t\203\204<G\247\344\275o\226N\275;m\363\275\024\323l?\275Ao\277v\262\010\276~s\253?Z\233\n\275\273\364\262\2771\010g>\220\276C>\207\221\000=\307\2122?q\377!\276\265g\371\275\214\343k\275\216\234\224=\227\222\021\276v\216K>zgm\274\034\026\233\275\220\2414\276f\225\301\275]\241\006\276;\306\251\276\377\032\276\276{+\326?B\307\373=\201\021t>J7\272\275i3\005\276\350\273\006\2767\330\036=\262\353\303\275\022\276\200>BL\311=\177\376q\276U\255\265;\235\n\272\275\000J\n\277\241\321>=@h\022\277}\3667>\3270*\276e\271\007>W\317\370\274\'c\252=\276-H>\324!L\275\203=|>^\251D\276\335\020q\276\371\364\243\276\234@ >H\277\315=\3564\n>\245L,>\274%\206<\326\374#\276s\'z?\363\204\267>2\270@?\242CL\276\303Q&>\374\273m\276h\3212\276\371\216\352\275\322\375\351\276ae2?\353\201O\276\016k_>k\264\307=\332((?\227\356\010<\225G4>\200j\265\275`3Z\276\323\031\315=\223\t\363;\326pF=\001\354\021>\2149\313\276JE\006?\304*\202\274\216,(\276\364{\360;\202\177!\276F\321\035\275\003\267\022\276\350\330\"\276\317\220\216\277hh\243=\0138\327\276\346\364\326=\002\364i\276\362\003\035>\244\0075\274/:-\276\352n\217\276s5\207\276\206\0040\276\242\366\t=\000\311\201\276\222\214\273\272\222\006\013<\240\336@\275\367\256\212\276\374\0020\275\013\t\306<0\002\231<+\345\360\275\36697\275\177u\212\276\334\t_\276\332\317\001<\262\213\337\273f;\245\273\213\241\003\273\3252\205=\234g\214\274;\031\247\274\206-7\274{wN\276Z+*\274Q\220\363<\314@\273;\342\257\322\274\002M8\276d2\t\275\306\245\316<&\204h\276j\335\355\273\334\0248<\255__\275\024\0323<\217Cb<\022&-<)\344X\273Q\211\212\273\n\210\000\273\'\321\n\275\356\201\325\275\311|@\276)I\321\276\234\000@\2763V\275<\242\242\265;\033\301\214\273\304\020.\276}\004\031\275N\361\220\275\341\322\032\276\033M\255<\201\014\032=\202}\307\272N\224R\275\245\0228\2756?\374\275\265~E\275w\030\355\275l\251\014\276\205\343\264=U_\234>\245\1773\276D:\203\275\300\366(\276\006\222a>\361\364\357=;\316\010>\232C\230;\342X\263\275\032\005\t>+\267C\276\232\020\027>v\250*\276\245\265:\275\361\341.>\244\272\350=\342\033\002\274\304\201\327\276\003\267[\274\276\305\014\276\231\227l\273>@\320\276\030\206-\277\373\n\372\275\273A\363\275\331e\276< s\245\277\3176\231;@Lm\274\270\350\221;0\213x=Xgg>\306\271C>\302\000\300=2\334\002\273r\242\306=\243>\026<\220\301\342\275\266]\324;\027\037\240\276\340\027%\276\032$_=\275N\313\274.\013\236\273\211\316*\276e\364\274=&U\351= \244\251\276a\326\375\276h\037g\275\220\367\016>\234\3172\275e\014\354=\220\366\364\276\r{\026\276\233\323\035\277>^\222:T\341J:\371\312\022>\3772t\276\002H\022>5u\003>)\205\340\276io\237\275G\230\202>\221K\306<`\375\237>b\370\331\276)\021\006=\253\340{?\343\322^\276\206\027B><\3122\276\034\244(\274(\237\"\276\324\317\307=\310Sm>\007:|>z\310a=\302\266\243=\006\254\265?\\\003\202>$p\032\276\025\320\024<\220\343\266>\205\006r=C\271\014\276S\203v>8\010.>/\003\362\276\254\305A=M\351+?\245\322\323\275\rA{\276\332\004!\276\314|\217>\001\242\340;\260\253w?\362\200\202\276\r\311\243=\"\0149?+\353f\276\310+\363\276\031\236#>\350]\346=\351/q=\256,^\275\241\361\201\276\313[]\276\323m\013?\213\007R\276\273\027>>@\373\334\275_\200\023=#v\022\276^\375`=\310\027T=\034G/\276r\325\010:\222s\031\276\337~\247?:nO>\016\314\351>\240\341\346=\220\227D\276\307(\246\276\003\242\373=\216U\323=u!\272=\267\376\354<p\026\314=[\201\333\276j\215\r\276\0246\367>R\354 \274^\325`?\267M\253;\374f\366>O\267\r\27667\364\275\372R\002>]F4\275\370\032o>\036r\277\275Vq\000?\225g\341=S\242Z\273\357\277L\276\226(+=,\355\353=\352\300J\276\026\241\320\275w9\237\275\331\341\200\277\306\314\220=8\227\000>8p\357\275W}\262\274`\342\375\276\324\343\362\273{\361)\275\327\025\233>7\357j\277\t\035\215\275\037V\037?r|b>!\272\203\277\254\354\370=\025\356n>\213\333\032=\235\343\373>\341f\202>sS\202>\377~Y>\026i\034\276\210$f>H\361\010\276\240p\367=Sr\263\275\360r_>-\243A\276\022\344\245=k>\320\275P\322\220=r\005W?\232c%>\341\304\306>%c\267\275\247tc>\351\215\037=\335\375i>w\034S>\346\240\354=\353\2044\276\016\032\273\275\233\217y\275\276Ed\275\270\0001\276\312\277\235\274\340\031\213=\362P\352=;\277\t=CV\213\276\325\223\310\274\250*7\275\t^\253\275\024\243.>\033\335o\2756T\016\277\343\206\214\275&u\334>\345\3451>\311\235\000=\r\177\351=\320\342\230\275S\252\202>/\350Y>\300t\270=Q\247d>H?\317\276:<\346=\274U\250=\332\356\326\276\320\377\245\275\205\021G\276dO\241\276\203\033\261>\362\270\334=i\005\337<H\242\n\275]\335\t?\351\333B<X\373\355=\245\270\343;j\211N\276;\217)<\004\236\302\275\261\232\334=:<Q>\267\364\210>\016\205\213>\356\310\216>\033\344\305=\252\2074\276\323Q1\276\337cY\275\336\347\025>\266\317A\275$S\003>e1K\275\204\310\"\276\270\234\252<V\303S>\272\237\245>T\217\033\274\345Z\367\275\237\003\">\377\201\014\274\302{\n\276%y[>2#\206<\330\3470>\206\337\256>q;\021\274\366\232>=\'Sy\275\336f\263\276\232\374}>rta>\021\250F\274\tH,>\211\r\342\275\350\261\276\274R\364\315=\201\353\304\272rbD=\335e_\272\223_\227\276\212F7>wr\214\275J\230B\276\n\341\323\276\325\013\242=\241\260\003\277,Gm\276~cB>\273\t\377\273\245a\362<\312O\003\276\004u\230\275\234vc=[\016:\276\224!\"\277JO\225\276\237\267\274=\254\205\201=\216\343\350<rl\r\275j\251\246\2754\251{\275\246J7\276\334L\321=\377\353\363\275\235\256 \276\236\322?\273\350\3331>\245\000\206>\243R%=\264-3>\\\257n\276\202\017\'\276u\201\026\276)\177\255\276\207\336X>\271so\274l5\346<\"\326\273\275\306\236#>\2343\317=\217A\032>\203\250\230>\031_e\276\330z\306<B\301\245\275\201E\260=\013\373\013=2\376i>Z\315\000\276T{\224\275T\030\314>\270M\271\276\374*\030\274\240\372\341=iOJ>I\343\345=w\275b\275T\340\000\277\256%\220<\007\321g>\212\317R\276\204QN>@\373\017\276\313\273\255\274\254N*>\013C\023>\371)\222=N\213\215>Q\352h>\337t\215>\356\245\001\276)\315\256\276\256\346@\274\211e\352\275\323\3061>\314\214\261<\306\233I;\267~\262=T\250\356=\"o\240<&\2027\276\250\271\246\275\247\023\006\276\355\241\022>\222\0174\275t/\216=a<\200=\201\2214\276\231Sg>E \225>A\036\021>r S\274\250\263\020\274\200}\203\2767\226\373=\216nB\275D\0178\276M+\020\277\337O\034\275\207\004w>\334M9>\244\224\305\274\346\2124>&\017\302\275\315\214\240\275\341\361O\274d\214\360<\020\232\210\276^d\351\276#\266!\276\017\3575>\356@g>\004\244^?\226\024 \276\301\221\232=`\312\300\276\306*R=\013Z|>\027+o>8T\230=\250z\002\276aK6?\336p\354=\306\265F>\211\004{=D\313[>bm\226\275\346\234!\276\362\260\003\2763r~\276\213;\207\277i\325\250\275:\225\032?\243\305\230>\266*3>\322F\003\277\361U\237\274^ G>\016\031\257=z\"`\277\344L\263\276\352)v>\n\014P\276\034b\233\277T\303\246\275U\3469\276\251\362\362\273\327{\010?\317\253V>*>\250\273\361+\212\276Y\353q\275\336vj\276\222|\007>\260\254Z>\332W\022>]\315\020>\0013F\276uB\007\276\226D\353=\357\240\240\276\007\010c?\216`\243\274v\216\021=\206\003K>\214\275\307>\226N\267\274\33634>\364\355\224\276\223}\237:T\014a>[\260>=\361\203\274>{&\023\276\237\252\372\276H!h=<x\224\276\007aX\276\021\204\203\276\177\325\027\275\000\032\315\2755\220\034\276wej\276%\312\010>~>\345\275P\247\007\300\270\243\277=\322!\254=\303,\360\275\354K\210\274\245\230\306\274T\020Z<\216$v>5P\010\276\227d\'?\277Ya9\210a#\277\212\265\353\273\344\256O\276\207\3462>\001r?\275\375\225\030>?\212\237\276\363Y\225?\376\362\212>\371\200L\277cJ\257=\344\346\266?[TO\276\211\372R\276\013Q1>\216\004\030>u\327,>\021B\245=\'\371,\271\331\2647\276\343U\027=2\234\001\276v\321\220\276U[\024:Zo~\276a|\257\2740\270\271=\231\366\220>7\250M>K\217\272\277\232\206_\276\357\2121>I,4\275+\325\223\276\270\324+=\206\345Q\274V]\334\275\230=\025\273N\213\305\275H,\246\276\303u\244\276\302\002\313\274\273\244\035\277\200\234\320\275\017\006\233=\0304m\275w\0067=\204P\026\276?\217\357:M\370\243=\351\376\202\276\2747\032=\002\272\030\275\354\320M\277L\363U=\364 v=\303\217\030\276m\310W\275?\236{\276&\222l\276C\023\014=\212\371\340\274)\211\226\276\376\3331=\344;\020\277n\354\275\275\236\206\202\276BbL\276r \230\276Z\325C\276s\220\214\276\264?(\276U\255,\275\262\347\274\276\325pM\275\265~_\276\037\246|\276\344O~:(Pp\2763\013\240=\356\367\n<\t\311F\276!\272\033=\330\003\326\275\022[\020\276\226y&=\201\324\230=\244\223\343<=:\316<\260Z~\275\217xE<=\035.=\013^\025\276^\254\324\2768\243\031=5?\254\276\277\034\337:\202\\\031\275\306:\004="
      }
    }
  }
}
node {
  name: "FCN/input/MatMul/ReadVariableOp"
  op: "Identity"
  input: "FCN/input/MatMul/ReadVariableOp/resource"
  attr {
    key: "T"
    value {
      type: DT_FLOAT
    }
  }
}
node {
  name: "FCN/input/MatMul"
  op: "MatMul"
  input: "input_input"
  input: "FCN/input/MatMul/ReadVariableOp"
  attr {
    key: "T"
    value {
      type: DT_FLOAT
    }
  }
  attr {
    key: "transpose_a"
    value {
      b: false
    }
  }
  attr {
    key: "transpose_b"
    value {
      b: false
    }
  }
}
node {
  name: "FCN/input/BiasAdd/ReadVariableOp/resource"
  op: "Const"
  attr {
    key: "dtype"
    value {
      type: DT_FLOAT
    }
  }
  attr {
    key: "value"
    value {
      tensor {
        dtype: DT_FLOAT
        tensor_shape {
          dim {
            size: 64
          }
        }
        tensor_content: "\343\215\354=_*\374=*\273\203<\332\243\2157!G\016=Q!\307>x7Q>\207\227\027\277w\337\242\275\306\252\356>\225\311\246<\231\253\035>\016\204\234>d5\264\275\321\227;\272*\226?;\236GF\274AU\005\272\360\320.\274|g\302:\250\270,?HX[<\276\312j\276\346-\035:(\360\210\274H\317h\273\313\322\214<\322\262N\277D\370\261=\033\3501\277A}I\275\256\340J\274>\2362\275\323V\271\276\265%Q\272\016\306+\277\257\361\216\277\327&\250\275\017Cg\275\035(\222\275\017\010u\277\rs)\272\306\230\026\274\207\271\367<\346*\306>*\371\215=\341\247\204\272\333\234`>x\242\302\275\243<\243=\360\020\243>\251&\211>]Y\035\277f\205\027\275\313\341\201\274\240/(\275~\247\003?4\217 >\302|\300\275\217\335\240\275V\334\323=Q\324\010\275\343\216\030\276\035;\\\276"
      }
    }
  }
}
node {
  name: "FCN/input/BiasAdd/ReadVariableOp"
  op: "Identity"
  input: "FCN/input/BiasAdd/ReadVariableOp/resource"
  attr {
    key: "T"
    value {
      type: DT_FLOAT
    }
  }
}
node {
  name: "FCN/input/BiasAdd"
  op: "BiasAdd"
  input: "FCN/input/MatMul"
  input: "FCN/input/BiasAdd/ReadVariableOp"
  attr {
    key: "T"
    value {
      type: DT_FLOAT
    }
  }
  attr {
    key: "data_format"
    value {
      s: "NHWC"
    }
  }
}
node {
  name: "FCN/input/Relu"
  op: "Relu"
  input: "FCN/input/BiasAdd"
  attr {
    key: "T"
    value {
      type: DT_FLOAT
    }
  }
}
node {
  name: "FCN/dropout/Identity"
  op: "Identity"
  input: "FCN/input/Relu"
  attr {
    key: "T"
    value {
      type: DT_FLOAT
    }
  }
}
node {
  name: "FCN/dense/MatMul/ReadVariableOp/resource"
  op: "Const"
  attr {
    key: "dtype"
    value {
      type: DT_FLOAT
    }
  }
  attr {
    key: "value"
    value {
      tensor {
        dtype: DT_FLOAT
        tensor_shape {
          dim {
            size: 64
          }
          dim {
            size: 32
          }
        }
        tensor_content: "\216w\351<\240S\240\275\240\272\217\273\227\333n>\373\366\217\276\033\373=>\221\347\021\276\362\227\270\275\261]|;o\223\026>/\245\336\275dj5>\311z$\276S\314*>\262\336\200\276\207\266\276\275\306\016\204>e5\025\276\216%\216\275\231\036P\276c\336\350\275\240\275M\275\037K\360\275\212kv=+\306\277\275\316\020m\276U\342\007>\327f\244>\340mt\276\323\316q>\223ry\274E\356(\275\351\253\235\276\0358\031>\334\303\201\276\030\203F\276\315\030`>\353`9\274\004\314\205\276\276\221\266=\266r\322\275\355\'\027>\212@\364=9!\260\276\303H\254>\036\361\217;\272E\301<\316\323\260\274\217$\201\276\252\033\265<\215Lh\2768\026F>(\316Z=X\213\010\275\347\301\241\275*\202\036>\200iq>-\342\205=x\253\330\275Z\357\376\275\365%\272\275\223%\201\276\016\037\235>IpR\276\202E\201\273\027\271@\273\020{\317\274\335}\203>\325::\276\255\023\353=\374/\005\276\224z\201\276{\224U=\341\275F>\375iP\276\312ro>\273\260\211\275H\375`>p?\232>\016\211\247\275\344\370\234=\034\216u=\'\030\253>\263\263\347\275T\312x>\256\225u<\214=\373=\316\312s\276\002h\276\275\352\247=>\213\253\210=\036\377\227>\351C\316\274\300\231\"\275\275o\342\275\310\215\300\275#Pk>\220\264@=\360\005\323<\375M\306;6\345I>\301\003T==\275\037\274\010\321:>\272\323\200\276\354Y5\276qi\266=\363\222O>\037\344\320\275\252@~\276\260\003b\276\367\374K\276{(\033\276\207\377\300=I\357\263\274\334\333z\275\\\235\212=\273\230W=a\321X=\370\n\236\275\262\213\243<~\250\t\276j\255!\275\236L\250=\021\363\035\276\347D_>j&!>\227\313\033\275=i\007\276N\201\226;\024\364\\>1C1>\227\317(>UP\201=\340\341g\276\307\322(>)\223\035>\205o\356\275@L\244\275\rv\234\275\214@T=\246\252\270\274\032>\036>\275D \275\244\200\026\276\341\205\014?tW\037=\021\334\003\275\325y\253=\221\222\275=?J\031\276\233\001\"\276\1770\036\276\264%\356>\030\261\314\275\244\203\313\273\257\346\316;\366\001\344\275O\n\223\275X\365Y\276\312\361\r\275\'\231\325\276\343m\352\273\260\335\332\275\304r\234=y\270\255\274\3412\231\275\2111H=H\240\256\276\225\035\313\275\227\357\\<\214\214\356\275H\225\225\276^3\202\275\210\254\233\276\201\217\031=`\027\270\276\305\3032\276?\035C\275\350Z\330\275^&\002\276\360\034s>\264,\027\276\243\'\237\276\001\212\364=\311j\236\276Z\023\027\276k&[\276\2175\200\275\024\363\004\276\311\253x\2753De\276\031\206\317\2764\321\275\274\302z\007\275K\220\366\275\334\225\242=\204r\324=Ye\003\275\342\230+<A\027t\275\305n[>D\230\360\275\244\372\206\276y(\333=\0360\301\275<U\250\276J\322\366\2755d\372\274-\316\247>\346\t_\276S-\003\276b\013\350=\304\337X>\347\345\352\275Uc\313=\241g\260=.\026\206=\014&r\276\312\256\367\275\376\000K<\307b\347\276\024\201,\276\016\204\363\275\332{\301=\321\222\262\275\263/p\275L??\274\354\362\250\275\036>\212=\306\036(>j\235\257\276\236\313T\276\212\242\017\276\014\013\304\275\340\351)<\276\222\344\275W\344l=\214\337\022=\216l5\276,5\303=\265\212i\275\243\264\r\275\312\265$=\346\223\311\274\005i\335\275\221\275\366\274\312\364\377\275\224\016,\276p\374\301\275\267J\263=T)\007\275dK\336\275\367\377\367<\315\361\"={\001\356\274\010=\254=\220\005S\276\274%T\276\001QL<#\2107\276\243\022\214=\376]\326=\335\373:\2762\375\016=\225\251\030\276\333]\262=D\311$>\\\271d\275\271\305\016<\264V\222\275\'\274\253=jb(>=\207\302\275\353\335\375=\207m\371\275\341\2203=X\224\343\275\024\373U=\231 \004>\315/K\276\367<\372\275\354\323 =\204r.>\034\252\213\276\244\217\263=}\331\311=z\200\220\275\304\020$?L\265^\275\245\373\210\276\360\320 \276\216\367X\276\301\275\271>1\202\223\274/\325\311\275\266\362D>u=V\275cG`\276\373V\237>\272(\314\274\315\034\033\275,\034u\276\240\004\325\276.y\027=&*\022\274\321\220\n?\273\222\242\275\264A\240\2761D\021\276K\177\366\275(\320\255\276\'\033\301\276\357\337\320\275^\034\235\275\027?\025=\217.\222\275\t\035\177>\364d\366\276I5%\275\303O%>P`x>\253\366\241=&\\\273<\242\273\207\274\302\2513\276\262\2132>a9\361\275L\201\343\275\006\273\317=\0134=<\232$\264\275Lu1>\362\r\211\275.wi\276&\320d\276\331\3374=6;]\273\0225B\2767\350\014>\347J|<\221s\212\276M\360%\276nx\177>\266\200\260:\204\014\256\274iS\000>\361e8>6\310X\276\213\331\r\276?\037\212\276\326\\\226=\001vz>\374U\351\275\324\235\366\275\372\225m=\303\311\260\276]\2570\276\021Cx=D\027V\276N\020I\273}\246\223\274\';\377\274j\254\374=>\030V\276\3667\253\276\221\201\033\275O<\254\276\354\252$\276\234|\206\275\031W)>\020\024\003\275(\n\211\276\355G{\276\262\223\002\276]\233\014>\303j\236\276\213\355\013\276\001X\303=\266H\322\275#\016\211\275\1770n>\240\211\205\275\260^\224>\370\320C\275\266\273U>\243\010\325\275\360b\311\275wS\274\275\363\371\346\275]{\033\276\266;}\276T\316\347\2744q8=\263\034\223=\233*\271\276\253\035\371\275d\215\032\276px\220\276\346\031\\\276\336\036\016\276w\247\032\276e\327\020\275X9\374\275b\267\005\276\221<o\275\234\312\241\2740\362S<f\366\211=\273B\247\275\216\n7\276\275\364(\276\277\311\206\276\226\317\032\276\001)\020<@Q\r\276+\256\315=,\"~\276\330\004Y\276s\212\013\275\336\240\321\276\312e\243=\266\324\002>\246D\235\276\"J\017\276l\343\033\276\316\325\207\275K\271\021<\020!\212\276:\375\264\275\234\0005>a\212\242\275s/\247\275E\366\216\276\035,T=e}\271\276\324\223\202=\340r\203\276hm\017\276b\356\206\276\210\211\275\276e\265\r\276\335\347\327\275)\261g\275i\273\211\276\035u\022\276/\225\001\276\247\371:\276\332K\'>\275\373\242\275\340m\345<\021*\236\273\272\334\350=d\201\354<\307\3448=U\344\307<\220w \275\251\247\243<c\016\024>\031X\301;\325\221\320=ZT\202=\273\"z\273\200\374\324=m\351\367=\357\001*\273S1\232\275\226\201\000>\256\236G\276%\273\021<\251m;=\271\035\334=\353\"c\276\200\211\314\275\332yP\275\007\010\255=\007\200U\276\316\254F=\237B*\276\032m\270<\334{V\276\002\337\241\274\206\312\222=)\"l\276\345\006\025\276\212Lr=\266s\006\276\232\004A>\217\221C=D\262\257\275\3770\025=M\305\\\276\217\311I\276\nV\335\274\027\010\231:\266\305/\275\224\370\212\275\211\256k\276i\255W>%4\253\273IH\252\275\267^\372\275.b\262=\010c\231=\245\207\362\2754\252J\276\325\334\254=c\267\251=\253b\023=\326\t\027>\204\214\214<\274Y\014>\320_9\276\354\354\024>\327U\002>\224\331\005\275\327H\336=\235\007\030\276\326\373\324=\225\300|=\352\226-==\241N\276\333 2=C\221m>U?\240=\344T\213\275\032[}>\301\020!\276\257&t>\323ZY=\201\211@\275Lsu\276\001\313\304\275\243\0006\276\260+\221\275TS^\276\357\311\021=:R\340\275o:\223\274\254\2574\275 \323D\274R\347\315=D\342\022<W\204I>\337H\257\273\356\202\002>#3\325\275q\344\'\276/ls=eZM;\\\0379\275\272\237\004\276O\351S\276\351\260a\276\360\t\317=^\007\032\276n\022%>\320\344\315\274Zc\001\273\2220B>@\027\316=kJ*\2769\374\036>\020\201\335=\315a5\276p\230\234\275\355Z>>+l=\276\302\214\016\276\002I\203>\305\303\036>\252\210w\275\207\3204>\366\004\356<\3665E=\326a\200\276\242\320k>Kl\364=\232]\256=\263eB>\344%\232\276\035;;\276\356\227\216>\200\312\346\275l\320\212\275F\346\023\275\321\020\243\275\014\266\200\274\255\372C\274\2211\225>\343\030N>\271\210\255\276\320 \343>\234\n\014\2762\262\307=]+\265\276\336fv\2731\013b\276\2610\222=9p\346=m\265\363\276\300\332\350=\375\332\247>\373\200\227\275\264\020V\276\362W\240>A>\352\276\315x\027={T\357=S\002\333\275\016\223\004>\322\304Z\276\010\253A\275\025\022\246=c#8>\031\033Y\276\353\330\\>\352\014\013=h\325g\274\246\220 \276\210P \276\322\252\243<\317\312\202\276\"\316\247\275\317\227\016\276\2570q\276\226\034\n\276\035\265\332\274\334S\005>\254b\017>\014Y\010\276\016\2513>ri\232\275\313\357\306<r~2\276?\340\"\276\270\234\002=\327^\021>xz\374;D\263e>\037^J\2752}\327<\244\245\034\276i\221>\276i\231.>Z\353\3357\374\231->D\262\326>\r6Q>\3309e\276\244X\\=z=\364\276\306\202?=\332\351\273\276\2631\026\277\252n\353=\007$\323\276A\362\013\274D\001t=^\352\216\275A\272\234\276\335\032\265\275\237u\250\276\316f\032>\255\270)\276\345?\366\275\n\211\217\276\314\314\006\276\337e1=7\026m\276a\177\016=\336wb\27552\300<\354\262<\275\n\0106\276(\324G\276\2310\017>(\361\314\275\001\036\236\274<=\204\275v\205\246<jT\317=\033\347I\276}\223\204\276\2507H\274\026\351\346=\016\271*\276\237RQ\275\214\332k\276S\2503>\374\307\327\273\335\320g\276\332\035\035>O\343\270;\026\231=>\214t\343<\023\021a\276\017J~\276\246|\214\275&5\261\275Q\217\326\275q3\206;\325q#>\272\264N=U\0051=\"\205W\275\315\020\324\2751F\352\275\253\214\343\274I\253\331\274<\030N<~O\\\276&\365-\276\307\341(\276&\035\177\276,M\346;\006\220\325\275\010\201\237\274\261g\202=I\330\344\276~\242\345\274\007:\375<\023\254\366<O:\260\275Q\005L=v\333\004\275\013\031\024<\016k\010\276i\352\351\275\203\252\347<\025\310\233\274\276\307\215\275i\2704\275Jx\302<b\271>\276gz+\275\276\235\327\274N\223\022\276\273\ra=<\254\274=V:\302\275\t\006\025\275\205\364\001>;\036\305=&>\276<6\265\033>\212\275I>\201\021\037\276\264d\242=\001dy\276\233\003E>j\007\332=\231el=\005Yk\276B\200R;\272U\000\276\201q\023\276[\240\376;\013(\373=\n.\025\276\361!)>\3104\215=\275\000t\275c\356s\276\217)\331\275\215w#\276\027e\213<O\200\217\275\365\350\200\276]O%=\366\365H\2769\340p=3/1<(\333\271\275\273&M\276@$\010=\301c \276\257#\212\275\366\261\245\275\353\r\371\2756D\371=(\203i\276\344\300\024\276\3230\274=\n\246Q\276j\323\201\276\263z\231\276\'\032\270\275\243\211v\276\234\267\357\274\255\230:\276;?\003>\005\233\371=\364\326\204\275a\307\217\276\263\0013\2768.#\276\261\3426\276\361\350\210\274\037\340\253\274\023C\227\275\240\2560>F\3250\275?3*\276e\325\301:\343\341&\276\217&\367=J>6\276\375+j\276\261\270\351=\331\253O>5\026\264\275\367]\273\275\032\326\272=\0036)\276A\277\303=\033\345\335=|9\223\275Wms\276\r6/\276\275\264\014\276s\375\334;P\277\266\275#6\202\2752\245\020\276Q\234(\276\332\321\361=T6\201\276\321\212@>\267#\t\276}\375\001\275\307R4>\026qh\276\222\225+\275\"\312]\276v\375_\276\034\026S\276\213\333\306=z\002\231\275\364^\245>2\252\365\275\256\032\307=5\362g\276EAV=\251Y2>\264s\202\276\267\237\017\276\362\257\357\275R\376\213=\364\356j\275\335\311\207\276\243\365O\274\263\206\026>\217\013\213=\337[@\276H\356\267<f\276\210=I\366\226\275\231\247O=\365\261D>>\343(=3\177\t>\244\307h>\200\301\345<\266\210\"\276P\271)\276\233yN\276\325\306>\276\217\307\216>\340\303\317<QJ\211\271\037\323->\356\351\331\275A\231\301\275\330\225\374\275w6\253\275k\027\316\275\221\023S\276\253\337\320\276\272\177\002>p0\251\276\201q\225>\267\n\211\275\t\361J>\305\'a\276\236\024z\275\003|\212\276\254\025\302\275>\2553=+/\217\276d\301\263\276\233d\341\276\347\345r\276b`\270\276Al\323=\321\204\"\276q\267\322\276s*i\276\252\241H<\222\2168=?R\252\274\225\226\366\275\265O\273\276\373\347\217\274\225B\006<0\211:=\n{\n\276\234\255\331\274\317MQ\275}`\311\275\305&\204\2756B\331<\221HK\276\361\311L=7O}\276)\275i\274\201}\035\276B&\r\274X\365\271\275\263\316\232\274\342K\264\2742\"-=?^\365=!4\031<\373\307\026<\331\322i=\254\267W=\274E\030\276 \266B>0xl=\214\254l\276\0076.\275\253\016\253\276y#.\276\250G\370\274U\352*\275\216r\375<R\253l\276:pE\276yx\177>\377\321`=[\301U>\364v\253>\323\216\206\276\203\017=9V\0132\276n\037~9X\010\267\276\217\316\253=\327\014\313\276\314\037)\276\204\r\002>|G\236\276\010\336\252=\246\306\206>7\220\017>\256[\233\276\236\216\201>\313\344\367\276GgL\274v\261\'\276\224\375\264\274j\036.\276>\334F\276/)\361\275\322\307\361\275\000\370\375\275:$2\275B\361\276\275\016t0\276\237\021\257\275\203&\220\275\0000\344\273:b:\276\370\345\203\275Y\330\236\276\0344\255\275(f\201\275]\247o=\216\031O\276\367\022X\276\013\307n\276\247\240\364<\026\030\270\273\232\t\334\275\331\306\013>|\374\021\275\263\"\035\276~\227\320:\367\244\'\276\207uN\276H\307]\276\357z$>\321\332\333\274\341\377|=\356B\022\276\225a\367<\203;\345\275\032y\257\275.\253L>\260X&\275\316\034\032>\032\032\373=`\351\004>M\336\036\276B\202b\274\201\035\346=\013k\026\276\366\370\026\276\200\3311\276M\017\034\274t\304\001\276\333Hx>\255\252M=\327cT\275\225.,\276z4\177\276\224\035\267=4[\231\275\2542\320;\237w\017\275\223\256\222=\n\205\027\276\r!\200\275aw\227\276\001\026\356\276\275\213H\276\006\361\371\275.\207\326\275\254y\375=\243};\276\365\241\364\275\034\355\207<x\213%\276N\3753\276\005/\232\276/\376\351=\361\371\216\276\236\022\273\276\247\201Q\276(\014\271\275|A\032\275\224G\017\276`\005>?\373_\037\276(\3336\276r\325\n\276\250\232C\276e\315\344=\3414\331\274\334\274\t\276ZF\033=\376\306\207>\323\253@\2767\037\027?\000\210U\275\362Yo=\326\'C\275\250\267O=Rd_\275\322\337P\276\353}\303\274`d\254\272_\365\237\276n\364,\276\354{\217\276\253op\276q\327Y;\223a\205\276\301d<>\210\212\373:Aa\264\276\261T\360\274\202\307\\\273\'%\353<\244,\311\272%_\302=\343W\260\275\320/U>7\353\207\276\262Y\222\276\026\216\364\273\310\r9<W\034\300\274\241\025\255\273\312B\316<\n\276\210;\266-n\275\256\355;\273\037\212\226=\030\234F\276V\322I<\300\0202=\350\2674>&\"I\274\031\303l>\254C<>&.K\276\026W\323=\"\026[\276\r\252\240=\246!\361\274]\336\027>Pl\n\276\244D\004\276\316\361\002\275\034I}>\372X\241\274^\266;\276iq;\276d\305\271\274D\327\302=\'G\322=\221\010!>\275\201:\276\305\277\262=\270r\326=qWH>\024a^\275\003\343\n>Zwz=\254\217\235\275_\001\003=\204\266\357;]\004C\275\2450\230\276\026\234\370\275\256i\016\276\0072R=>\232\255\275\270\273X\275\3273Z=j4\275\275\224\327\334=\347U&=(\3411\276V\204,<=\356(\276Vc\274=\346\366\302=\364y\316;9\245\260\275\236\320k<\345Sj\276$8\017\276\353\002\006\276[\345\356=\377w\216\274AH\023\276\356\211g>\274\t\227=\013\350\300\275n;\331\275\251\340\253\276\225\3135=\360\210`\276\315\202\014>4\327\247=\256q\205=\206\004+>\275\020o<\364\207\203\276\010\206\263\274\257\017\216\275\374\203,\276\003N\234\276\343i\333\276Sa^>\342f\020\277q\236E=\320\213B\276\227cm>4\346\231\276q\023)>\213C\211\2766\250\032\276\305K\237>\0022&\276\020\177\r\277\230\023.\277H\314;\276\256\217\013\277\235.:=Z\236[\276[c \275c\351\252\273\001we\275;\t\375\275_\023G=;\234\314\2758\017T\276\\\000\205\275\254p6\275\3173\327=\\\222\255=>Py\276\223\n\r\276\261\315\364\275\207!\007\2752\034L\275(\320\356\276\331*\017=\200e\265\275\205\251o<\021X\226\276\210\211\205>g\304\341\275\006\365\364\275Fn\345\275R~\035>.\320\307\275\274p\354=\272\314\277=\263\352\315\274\306\305\'>\303\327\365=O\377\336=\254O\263=\300\271w\276\242\007\240>\206\346m\276]&/\276\337<}=x\246\257\275\332\221\216\275\341E\377\275?\037\035\276\220\n*>%R\217=\033\036\033>\032}g\274\021y\326\276\357\270k\275\274%\356\275\306\202\370<&(u\2767YK=_\027\336\275\341\236\356=pi\315=z\310\350\276\001w\236=\177\351\302=-\255`\275?a\237\276`\255\005>\335\262\200\276\027b\204=W;\211=\375\020\215\273t\374\235<\256&\000\276\223\002C\276\257\355\270\273\257\032\223=\243l8\275:\r\005=\3630\240::\206h\275\224FZ\276\244\032\001\276\265$\262\275\220\366\243\276\213\210\203\276.kc\2763\335\r\276\t\243\202\274/\262\231\276\n.\017\275rD\201\276\372a\344\274\301\325w=\322\372\351\2759\034\036\276\207\353q\276\031\336\330<f+c\276\330p\216\276\237O\256\276\341*\240>\215\210H\275\335i\222\276\234\337\203=^\360g\276\357Jf=\374\225\225=\326\002\342<\213\360I\272\257lf\274\317O\252\275\"`\345\275\250\323\252\275\tA\357=\210\246@\276\004\007\346\276^!\221=\204\035\004\277\363q(\276\236\036\267\275A\237\314=\257\304\201\276\031\"\307=`/\272\276C2[\276\"!\217\274\304\305J\276`n\000\277\025\264@\277\016\233\372>\341K\312\276\3426\244>\373\017\027\276\270\213\225=%0\026\276\353\357m<\241\261\227\275}\262%\276\227F\r<@\335\317=07\004\276\240bB>\371\r3=\370r\021>I-O\276\242*\037>8b\202\276xh\343=\207Ma\275\254\223d\275U3+>\203h\340\275\270P\004\276\250\272}=\317\032\216\276\202\224\251=\377`l>\006\236\013\276\271n\004>o\245U\2765\351\246\276\310\267\363=\202@l\276\277t6=\300n\213=\014?A>\257\177\351\275\372\314\217\275^\035\263=1tL\276\002\2130\274BA\022\276\370\365`\275\261\322G\275\036k><\034\343\177\275\"\345)\276\325\226\312=\226\331<\276D5j>\360\372\213=\277>\224\272\227\356\000=q\342\371=.\251\345\2754\221\227=.\253\253<\374-]\276\350Bn\276\223\350\034\276x\211E\276\275\371L\276;\000\253<\233\321N\276\021\371\326\275\360\350\032\276Q\357\325=\226\021\377<M\3157\276J\316\223\275\345+\016\276\345\234\217\276\022\275 =\332\324L=\216\271\367\275/8:>s\240\023=8{K\276\265\240\027=\177H2\276\265$\010\275\336\003\023\276\025\300\232\276\260ly=\233z\363\275\225\371*=;\332\226\2762h}\275\211\317\347\275\306\235\257\275\227U\034\276\203vY\276@:8\275\214\260\275\274\227\334\243\275q$4\276\361\303\250\275\223\253W\276\244<\215\275]c\375\275\335E\002\276\312\301\\\276\n\304\323\275\275\366\251\276\266\306\301=\313F\200>\367\304U\275\270\343E\276\215\227F\272(^\034\276\307\307]\275\006\035\000\275\336s\304>\373\023\221>\335Y\356\276\352\225\026>wEa<e\231^=\267\320\020\276P\033C\273B\227\305\275:\203\257<\361\341\236=\201\276\217\276$\220r\276\r\275\214>\315\275\244\274\367\351\207<\237\254\000>\'\376\210\276B4@>t>\016\27574\032>\362\014\005>\251^o=\220\\$=\364\370\305\2757\301\026\276l\000t\276\371,\000\276\350s\252\275\024\302\007<Q\\\276\275\374\323D>o\005m>\005:\r>|\246p<q}\224\274>\224\222\276c\201o>a\343\202=H\322\017=\303\0056\276\231h\031\276\026\345J>\243\346?>\251\305\207\275\202\363\364=\231\311\215>\030\221\323\2757K\356=\323uc\275l!\322\275k\355\226\275\034{u<8\233\"=\260#\000>\'\200B>\240\327^\276N\232\"\276\256oN>6\261\355=\"\330\216\275\342*\036\276\336\032!\276_\276)>E\306\347=\252\271x=\252\321Z=\325t\265=\223\300\017\276\301\277\255=r\331I\276M\rT>\354\230d>\035\245?\276\355Ya=,\001\343=\353)9>\220\357\022\276\014\264\254=\\~,\276K\231\207\276\213?\001>M\006;\276\202\325\202\275\205\t\372=3\202B>\265\364}\276\235\357\233\274qk\333;\333\0142\275`\255n>\20624>\317\332\224=c\323\255=\241^\300\275\"\246\275\275\347\326\313\275\334\314\204\275eG\010>\355\003_\276\371\2535\276\357\203\300\276\350\352x>p\364\353=\363i%?8\3025>g\343\220\275\215\303\302=&G\226>\336\221\223\276\351\222\251\275b.\t\276\r\0301\276\314:\266>\322\267\n=^\347+>E\320C\276\036\017g>\372Z\033>\215/e\274/\335\302\275V\300N\274\']\244<\2146G\276P\342\264\272\217\254]\276\237]\013\275l\305F<\356\313\361\274$Ki>\2038\354\275\267\232\032\275AA#\276|\271\000>\257\252\202\276\206fj\276V\323#>\004~\300=\300r\010>\227\235@=\005\226Z\276\247_R>\3566\206>\363\t\021\276\346\353\031\2769\022\005=X\"c>\325\250\003\276\377\336p\273\306M&\2760\343h\276\243\331\362<\252t`\275t\350\241\275\215\t\363=\277\233\246\275\346}\237\275\257\325O\276\244\204\317\276\341>\037>\273\264=\276q\341\302\276o\330M<\226\2454\276\252\343\033>U<\340\276\305e\302<\203\214L\276\325\035\361<\037\314\027\276\323y.\276\373\306\374;\0142\203\275Z\340S\276\265\003\207\276\235m\032>^\\U\2762\307;\276/\355\033\276\321`\374\273\000\367\215<\276j\266=\"\"\\;\357\022a\276z3\331\275/\360\343<\021\354\270\275\r\317y\274\203\355\025\2769fL\275\325JG<\013\255\350;boS=2\371\372\275-~[\276\001h\275\274\251Xj\275\3006y\273\232\270\030;\206\355F\276k\226\026<\250\362\227=b\2027\276\235XR\275)Mv\276|\341<=\221*#=\321\342R\275\206p\261=\005\301.>\321\224\260=\302$\352=<$s=WY\312=lq+\2751s\263\276}\355\256\275\274\212s;7\220J\275R\317\332=a\376h=w\207\233=_\326\032>\312\224\206=\020s >\331\020\023<\311\372\004\277\345\0279\275\3217=<T\361\335=\360]R\276\"\331\t={\342\005\276\231v\244\275;\261j=\321\177\267\276@v\027=\377^>\276\317\301\205<\367\275\234\274P\235\r>\313\372f\276\377\003\234<\005\275\001\276\257\267\016\274\320M$\275\331\"\224\273\241G\204>cP\027\276\201\034t\276u\346\345<\306\261\323\273@\234\377=\020\317\007\276\270\r\014\276\030=S\276\327\230m<\355\214J:5\374\355=\315B\032\276\0230@\276\336\006\306\275\340#*=\336\021\206\276\223]p<\337\274\341\274\361\202\314\275bY\222=j\350$\276\324\0003\275\202\215\227\275[\224\252=\357!U\275\277\362\314;\036(\020\275!|\340=Ii\230<\351\210\302\275\357;+\276U\225*>\333\301\267=w\006c\276\257\263\374=\352\356o\273\304Y\323\275\305\\\021\276\363_\201=\326\2323>\035`\260\275)\257W\2761\225.\276\317*~\276D\322\356=m\231g\276\364E\240\275Xz,>\007\300|\276\314\033(\275\363fR\276A\2341\276\245\\G\276`\332Y\276\304S\320\274\351\377L\276\367?L\276o/\334\273li\'>\314\354\353=\347\373\'>Gu3>{\221R>LV}\276\\tA\276 \244&>\300\327\276<\010\037W>\020\3609\276\312\373\034>\007I\004\276\367\006l>\350\206{>J\023z>\225\321q\276\251\200P\276\266\032?<\373:%>|{\013<\030\365;>C\224\r\275\224\322\022>\277\324\207=A\034-\276\026\363\330\275?\366\002\276n\324\n>x\375\323=?\336\210>\350\177@\276\220\254\322=)0^\276K\232E\276\3476\r=P\004\036\275\250\314\026=\304 e\275\377l\241\275\320\356\240<\nuq\276\201J\024>\312\230k\275K\263\023\276A\321>\276\34051\276>&\261\275\220\310c\275\0049\243\276\250\267R\276\243\332o\276\215\202\235\275\252g9\276\360H5\276\360\037\243\273\201\330\255=\351=X\275.4x>&\344Z\276\264\205$\276\347\014\231=R\233Z\276\301d\326\275\000wK\276-W\326\275zM\354=\033< \276J\321L\276\224\3236=\000\264s\275\332\254)\275\016<\353<\337\3111=\251\304\321=\340\334z\276\355)\363\276\243\036+>:\006\313\275vZ\260\276\232\335\351\273\013\335\201\276\237\303\003\276\0259\300\275\032@k\276K\374\324\275sU\371\275M\377\351\275\026\212\013\276\344/\200\275\002\361!=\310\277]\276\030T\271\276\316J8\275\036\347R\276\305` \276R\253\202\276\301n\020\276=z\222\275\262\200\201\276T\221n\275\336N&>%\203F\276\371/]\276z\002s\275uaJ\276(\"\224\275[\256\213\276\032`\205\276\224t\332=\2426\363\273\361\331\302\2762\346\03090\217\226\276\203/\315\275B!\317\276YRo>\240\230\227\276\201\250\303\275\327\311z\276\332\246\036\275\222g\327\274\250\206t<\014FD\274\361\341\370\276SE\214<\254\277\346\274v\263\032=zq\225\276\264O\004>]\230\206\275z\001\035\276A\231\241\275o\rR\276\001\301\232\275cS\363\274\202\362^\276\n\326\370=7l\241\2752\274\r\275y\032s=\320\237\271\274\3037\260=95p\275o\004\333\276\227L\002\276&\251V\276\331\234A>\'\223\217=Hi\254>\253!r\276a\231O=Km`\275\260\'\203\276K\225\323;\020N\n>\257\254a>\032\314w\276\312\210O>\0172\301<\312n\270>\347)\370\274\316\227Z>:\253\230=\247\356\325=\\\343\256\275*\032\360\275>/\037>\237\262\374\275\017\0016\276;\323\177=l\272\017>\222\206|\276\235\035\336<\302}U>\274%\027>P2\005\275\3512\202\276\026\246B\275 \324\213=P\367\322\275\327)\336\274\244<i\276\316\216\006>8$c>d\264\224=\006^\006>Y\367\244=e\303\231=j\036\031\276}\274F>\252g\013\276&\026B\275*PP\274/~N\276\313l_\276\022\031&>Z\305\376\275\355K#>]<^\275?J\236\276\214\371C\276\266Th\274a\254\016>O\350\020\274\326\227\016\276\001\001\";*\312\330<7\321\316\276Sp\213\274j\327\200\275&\310\230=NuB=\024\237\356\274oM\200\276\030B\377\275#\002p\2761o\224\276\375!?\276\333b\220\273C\326\'>a\376(\276\'\322\227<\351g\013=\340\002\376=\361\345\3178\223\253E\276\027\355\225=\207E\203>@\022o<2\tO\276\334y\250=\227\345\357\275\272H\372<\307!U\276O\234;>\236l\203\273*\202==\332\370y=.t\013>\\\017\303=\235\335>>\034\214\201=\237\010\024>a3\016\275\360\037\322=4\227\322=\227\017\264=aa\014>\220\300O\276B\303\006\275^.m=\316\236[\276\234\336\327\275\326n\320=\3514J\276Z/P\276\rr\243>\306P\241\276o\323->\334F\010>\007\346m\276\305\326\214=98\252>\037\'\200\276\232\242\240>\336\2641>\275\374L\276q\212\362=cN\023>4mj\274\301\023P\276=\025(>7\016\247\276\252\312\305=\016B\260=\315\3406\276\001\350\233\276!\344\017\275\007O\r>i\315\225\276\300.\353\275\t\325\031\276\370RU>+\nS\276\t\240)\276$\242m>\352\250\034\276\356\026\326\275\306u\252\276\315i\030>\001CW\276\347r\230=\261\271e\275\221ul\276[\364\255\276/f<<\030\224\340:\327+\212<\305\354\300\273\321\247\261\276\305\337\232>\247-\325\274\022\207E<`\234\032<;\233\003\276Kz\301>\341\367z\276\371\013F=\355\3425\276CI\367>\262\031\005\276\033\007\252\274\325\215\225>\002=p=\301\357\367\275/\366~\276\366r\371=!?\203\276\217\227\225\274\202,\354\275"
      }
    }
  }
}
node {
  name: "FCN/dense/MatMul/ReadVariableOp"
  op: "Identity"
  input: "FCN/dense/MatMul/ReadVariableOp/resource"
  attr {
    key: "T"
    value {
      type: DT_FLOAT
    }
  }
}
node {
  name: "FCN/dense/MatMul"
  op: "MatMul"
  input: "FCN/dropout/Identity"
  input: "FCN/dense/MatMul/ReadVariableOp"
  attr {
    key: "T"
    value {
      type: DT_FLOAT
    }
  }
  attr {
    key: "transpose_a"
    value {
      b: false
    }
  }
  attr {
    key: "transpose_b"
    value {
      b: false
    }
  }
}
node {
  name: "FCN/dense/BiasAdd/ReadVariableOp/resource"
  op: "Const"
  attr {
    key: "dtype"
    value {
      type: DT_FLOAT
    }
  }
  attr {
    key: "value"
    value {
      tensor {
        dtype: DT_FLOAT
        tensor_shape {
          dim {
            size: 32
          }
        }
        tensor_content: "\3205\035\275\351\306\">\033\356\350\275\3466\221\276\344G\223<u\357\037\276\227B\227\275\351\357 >\322\233\300\275Z\357\343\275\302\347\274\275\344.<\276\314\0364>\245\320f>\302\3270\276.2e\2740J\r\274)\260\027>\257$/=N\364\001\277(\334\213\276;\217i>t=\023\275\271\\\375\275[s\005>\217\233\274=u`^;\223y/=/P\227=E9\223>\006Z\242\276\255x\313="
      }
    }
  }
}
node {
  name: "FCN/dense/BiasAdd/ReadVariableOp"
  op: "Identity"
  input: "FCN/dense/BiasAdd/ReadVariableOp/resource"
  attr {
    key: "T"
    value {
      type: DT_FLOAT
    }
  }
}
node {
  name: "FCN/dense/BiasAdd"
  op: "BiasAdd"
  input: "FCN/dense/MatMul"
  input: "FCN/dense/BiasAdd/ReadVariableOp"
  attr {
    key: "T"
    value {
      type: DT_FLOAT
    }
  }
  attr {
    key: "data_format"
    value {
      s: "NHWC"
    }
  }
}
node {
  name: "FCN/dense/Relu"
  op: "Relu"
  input: "FCN/dense/BiasAdd"
  attr {
    key: "T"
    value {
      type: DT_FLOAT
    }
  }
}
node {
  name: "FCN/dropout_1/Identity"
  op: "Identity"
  input: "FCN/dense/Relu"
  attr {
    key: "T"
    value {
      type: DT_FLOAT
    }
  }
}
node {
  name: "FCN/dense_1/MatMul/ReadVariableOp/resource"
  op: "Const"
  attr {
    key: "dtype"
    value {
      type: DT_FLOAT
    }
  }
  attr {
    key: "value"
    value {
      tensor {
        dtype: DT_FLOAT
        tensor_shape {
          dim {
            size: 32
          }
          dim {
            size: 16
          }
        }
        tensor_content: "\344\3657\274 \373\366\272\224\r\207\276gx\217\276\225\357\351\275\363\nv\276\263\247\r=r\245\001\274Y2;=\335\004\224\276\273\215A\276\3643[\275\000u\260\276\3115$<\217\375\221=\313\376X=(7\006\275\\\240K\276$\363\266=\261\366E\276s\350U>@\026*\276\367O2\275\275\207\346\276\203\313\325\275$\252\276\276kKE=\357\365h\276\236\367_=[{\335\276\276a;\276\277\302\377\275c\371\341=\234\277_\276\024YV<\253\306B>\212\252\216\275\t\251\226\276\263\302\027=\350T\270\276\273(\356\275|47\275\236\231\257>\354>\361=\250\344\360\275\223\321\017=\242\321\207>Ad]\276F\"a>\240t\275>\275\322I\276\017Yh:N\375Y=\005b\226\274Bu\216\275B\031\017>\271\025\203=\244K\035>\017j\367\275V7\270>\261\256\265<q\314\225>\267\312=\276\315\245>>\334\'\025\275\317\306\231\275\2075\270\273\242\3623>\"\255\212>S\t\205>\350h\370\274n\360\374\274K\311\230\276\231\242\317<\271\372\366=o\006\372\274%\263>\273!s!\276DU\301\276\023\031\262\275\357\212x\276\356N\302=\301C\310\274\255#\227\276\227\341J>\327\221\252=\017\327\305>\311\226\201>\'\234\200=q\345\327\2761\241\215\276>M\341=\355\251K\276n\n\005>\021\022\210\276\202|}=ID\263=\3501\n\2749K\211\276\nN9\275\200\310-<\004\3667\276\214\031^\276\352\\*;\273r\250=\313*\315\276\324\327N\276\2147\014>\n\016\245\275U$7=#O\264>\244F\026>b\247\234\276\212W%\276vrD>7\323\210>Vz\004\276\327\323|>2\031&>{[\231\274|\203\021\276\215K\315\274\331\233->\314\303s\276\366\211)>U\351\363\2759Ai\276tI\211>gd\217=kJ?\276\225D\211=\270c\236\276\364\327S>\342\266\033\276\000\241\200>\361\217\205\276\361\272\261>l\334>\275\375\301P>5\002{>\221\217\377\273w\320\232\273Oa\226>\010\246\370\274e&C\276%\347\223\276\314))<\312~\240\276>l.>d\241l\276\0322z>\027\346i\276R\377\n\276,\350\247=\027\364\243\275\035\014T\276\243\034\315;\363K\022\276:r\371\274\251\337v\276G\271\253\274(\0174>J\232q=qX\271;\366\341\200>\343\304\233>u\364w\276(\240f\276\371N.>k^\201\276BN\214>\371\266\225>V,|\276\"\342\\>\037w<>r\000h>hw\333>\037~\373=c\027\352\276\203\201x=\251P\004\276 \255\033\276zz\221\275qP\365>\032\313y>~\243.\276\342U}\276J\237\217\276\037\304\217:\013~j=s\323)>\304\034U\276J_I\276\034\030)\276\216H~=\352\375{=y\212X\275\223\245\034>2\331D<\317v\024\276\025B\265<\313q\217\276\313\224h>\236B}\2764\325\330=6\320\200\276\016\337\005\275\336\237p>\244\002\001=\316[\223<S\245u\276\373\220\217\276\270\315\216=\\<\376\275P%\376<0\014\"=G\214\030=\262|\333\276\324\021I\276\177\2607\275\201\310\314\276>\014.\272\252\027M=l\313\305\275e\212\356>#!\322>\n?i\275}M,\276!y\253\276<\335b<>\227\252=\001\'\262>\227\253\276>B(2\274\255\003p\276\245\373a>\235\320\240\274\252\301\354>\007c3>\377\330U=Qk\230=H\3610>)U\036?\315\371\025>\306\\\215\275.\226N=#&\033\276e]\315\273\334T\035=\337\220\025?>\317\027?\241\341C>\215\350@?\3560&=\007\276\020\276\013\320\023\276n\261\003?\352\331\364>\356\347\201>\333a!\275\3211\263\276\021\347[\276d@:=\213\305\200>\235\347\305>\223\243y=v\242\273=\213\020\037?mU\017>\207\210\264>\330c\341>}\033\214\276\002\343\250\276tm\242\276\274P#=\341E\376=\246\227T>\220\003\037>p\243%\275$W\203\275\270\336\342\275j\002\270>\n~\013>\260\357\225\276\225\260m\275Og~\276\013\032\025=\353W\200>B><<:4\260<\341\270\221\276\355N\302\276\342pC\276\017}\007\276\363\030P\276\036D\205=\241VM=1\230\265\276\032\365\201\276D\333\355\275\210A\263\276\036\033>=l\322\005\274\301+\236\276\221_@\275\033\332\014\277\027\230\206>\354\203U\276\247\224\231\275\324{6\271\264e\314\276\373\312Y\276\342S7\275$\204\005>mb\202>\373\nd\276(4\033>\273`\343\276W!\216\276\206\\\276\275\370_\300>\335\256k>G\010<\276e,\217\276@\344\267\276eE\241\276\314\374N\276\242 r>\363\373y>\320\024\252\274e%`\275\247\374\">\221\221\203>\301\303J>\227\301\352\275V\270\264\276\037\210\352\275\r\330o\276\223\363\365:\364\206\237<\177\331@>?B\030>\255z\247\276)\205\'\276\235\037\354\275\316\257#>\263\255b>\301\252\310\276\274\336\026\275d\345\222\273\235\263\251\276\250\254\016\276\364\343\254=\242\"\031><\241\t>\273\270k\276\323\"\254\276.\335\254\276=\272\304=\240\315,>\032\215g=&:\246\276,\357\215\276\237 b\274N\360Y\276T\317\355=\36754>\333\362?\276!\327u\276p\201\'\276\247\343\224=\022X\227\275\246+\275<\371R\316\274\177\002\022=\367\367\n\276\367NI\276\272\252\204\276p\250\241<9f\031\276E\037\177=r\350\244\276\327\207\211\276jBL=\364\367I\276\305*\240\276~~|>/H\323<T\366n\275\247\331\356>f\224\262<#$\277\275\032K\347\275\310\000\355=\326\000\224>\343,\022\276\256\212)>\357\205D\276j\267\215=7!\206\276k\205\203\276e]s\276iy\001=<\246\210\276\361\253v>\361\215<\276\324_\251;89\316\276(@\212\276\305K>\276\254O\356=\267\367\255\276:\341\303<\247\310\376\276n\340\003\276\265\027\223=-\2703>D\344\267\274\3155\325\276Y\017\n>\211\375\013>\200\230\331=\245\373\264\276\252:\014?o)i>\004\233\006\275p\3237<\276\036\244\276\357\333\005\277Fj\376=\2516\014\275\264\271\303<\022L\027?\'\266\250>\0003\n\276\3108?\276\215B\307\276\301\263\237\276\332\007\241\276\262(\247>\017\031@?\t\220Z\273\363\327?\276^\013\356\275\214\242V\276U.\213>#\334\214\274\212\343\202\2761e\034\276L\274\021\276S\324\351=\211E\237>t5t>-\3366>\014\377\216\273ks\241\276\213\374\213\276B\327\213>d\010\321=\253o3>\323Z\374=\n\346\267\275\324\324I\275N:\002\276\271\345\304\274B\346P\274\277\332\221\276\212\204\026\276\337\025b\275am\304\275\370z\016\276A\3444\276\274P\025<\244\377t\276\352tO\276f)\351>\360\251\300\276\032\224\260\274\216\204\225>\221\247l\276\210\207x\275\030\032\322\276\020)\260==O\002?\234\307\273<\373+\376\275\347\032\262\276y\331\277\276\246*\226\275\021/\213>!\"\231>r:\212\276>G\202=\236q\330\276\275\335\234\276\301I\202\275\347vV>\001r\214=f\024\001\275\200\341\230=Rn\005\276\2522a\276\324\203\201>\221\370\021=.;\034>\205\307\205\276%\233\265\276\314\354_\276\356z\335\275\271\330c=\331\"\242>wP\235\276"
      }
    }
  }
}
node {
  name: "FCN/dense_1/MatMul/ReadVariableOp"
  op: "Identity"
  input: "FCN/dense_1/MatMul/ReadVariableOp/resource"
  attr {
    key: "T"
    value {
      type: DT_FLOAT
    }
  }
}
node {
  name: "FCN/dense_1/MatMul"
  op: "MatMul"
  input: "FCN/dropout_1/Identity"
  input: "FCN/dense_1/MatMul/ReadVariableOp"
  attr {
    key: "T"
    value {
      type: DT_FLOAT
    }
  }
  attr {
    key: "transpose_a"
    value {
      b: false
    }
  }
  attr {
    key: "transpose_b"
    value {
      b: false
    }
  }
}
node {
  name: "FCN/dense_1/BiasAdd/ReadVariableOp/resource"
  op: "Const"
  attr {
    key: "dtype"
    value {
      type: DT_FLOAT
    }
  }
  attr {
    key: "value"
    value {
      tensor {
        dtype: DT_FLOAT
        tensor_shape {
          dim {
            size: 16
          }
        }
        tensor_content: "\322t\345=\010\330\235=\217|i>f\026\373<\025\370\013?\267\3516>\313\304\247\276\264\310\226<n@V=!\3260=\270\217`>V\032\346\275\354\r7>\377\3336\273\273@\360\275\352\265\324="
      }
    }
  }
}
node {
  name: "FCN/dense_1/BiasAdd/ReadVariableOp"
  op: "Identity"
  input: "FCN/dense_1/BiasAdd/ReadVariableOp/resource"
  attr {
    key: "T"
    value {
      type: DT_FLOAT
    }
  }
}
node {
  name: "FCN/dense_1/BiasAdd"
  op: "BiasAdd"
  input: "FCN/dense_1/MatMul"
  input: "FCN/dense_1/BiasAdd/ReadVariableOp"
  attr {
    key: "T"
    value {
      type: DT_FLOAT
    }
  }
  attr {
    key: "data_format"
    value {
      s: "NHWC"
    }
  }
}
node {
  name: "FCN/dense_1/Relu"
  op: "Relu"
  input: "FCN/dense_1/BiasAdd"
  attr {
    key: "T"
    value {
      type: DT_FLOAT
    }
  }
}
node {
  name: "FCN/dropout_2/Identity"
  op: "Identity"
  input: "FCN/dense_1/Relu"
  attr {
    key: "T"
    value {
      type: DT_FLOAT
    }
  }
}
node {
  name: "FCN/dense_2/MatMul/ReadVariableOp/resource"
  op: "Const"
  attr {
    key: "dtype"
    value {
      type: DT_FLOAT
    }
  }
  attr {
    key: "value"
    value {
      tensor {
        dtype: DT_FLOAT
        tensor_shape {
          dim {
            size: 16
          }
          dim {
            size: 8
          }
        }
        tensor_content: "?\212\006\277\300\270\271=uDM\276\033\356R\277n\t\366\275\326\321&\276v\236\265=\250u\327\276\026\351\316\276\016\350z>*b\025\2774A\353\276\t-\321\276s\261\304\276\345AK>\033\261\016\276\255\372\224>\350\245\000\277\276U$>W\271\245=$\251\215>,\260\263>\030A^\276\352I\024=\215\332\347=7\277\326>\230\336\260>\271A\233>\354M\037>\352\242\307>\360\243I>8\231s>\320x\023<\365\r\'\277\031\006\247;s97<Y\215S=\026\022\000=\021\014\037\277\257\376\203\275#:4>{\002S\276\236\342\022>z~5=\367\253\231>\321\203\317=/@\022\277%k\353\276\247_\230=\253\312#\277\2123\267=\343\3701=\355%\036\273\377\3678=o\312\261\276\363\211\347\276fw\014\277\200\333\300=_\220\304\276\220\035E\277\316\3713\276C7]\276\202\206\322=\204\236\250\276\240-\347\276\t]\237=\224+#\276\034\013K\277\375+\350\275\234\257\027\276\025\313\213=\334k\002\277\243E\266>\024\374\004\276\023my>6)\010>\247\324t>7\231\354>\341$\201\276\'\'1\275\376\236\013>#\310\336\276\366\325\000>*7{=v\0012>\"\tb>6g\300\276\316\3411\275i!\376\2755(\204>\'\357\022\277ij\005\277;\360\264\276\023\254\203\276\233\340\240>\324-(\276)\023N>\232\343\000\277_g\223>s\274\">j\270\323>\257\341\254>\211\037f\275\347Y\001\27616\332\276\235{@>4\270\003\277\321a\252\276\267A\361\276\022\014\373\276\312\213q>\266A\332\276\237\361\321\276\"\314S=(\344\353\275\255\233\035\277\017}\246\2753\001\360\275\306d(<\006\010\322:\006\245\031>M\202\004\277|r\324\274\331\221\'\275X\331\022>P\203\017>D\237\330\276\331-\307\276"
      }
    }
  }
}
node {
  name: "FCN/dense_2/MatMul/ReadVariableOp"
  op: "Identity"
  input: "FCN/dense_2/MatMul/ReadVariableOp/resource"
  attr {
    key: "T"
    value {
      type: DT_FLOAT
    }
  }
}
node {
  name: "FCN/dense_2/MatMul"
  op: "MatMul"
  input: "FCN/dropout_2/Identity"
  input: "FCN/dense_2/MatMul/ReadVariableOp"
  attr {
    key: "T"
    value {
      type: DT_FLOAT
    }
  }
  attr {
    key: "transpose_a"
    value {
      b: false
    }
  }
  attr {
    key: "transpose_b"
    value {
      b: false
    }
  }
}
node {
  name: "FCN/dense_2/BiasAdd/ReadVariableOp/resource"
  op: "Const"
  attr {
    key: "dtype"
    value {
      type: DT_FLOAT
    }
  }
  attr {
    key: "value"
    value {
      tensor {
        dtype: DT_FLOAT
        tensor_shape {
          dim {
            size: 8
          }
        }
        tensor_content: "&L\'?b\212(>\241D\026?\346v\001?\346\320&?\306\262??<\2553>\242\343c\276"
      }
    }
  }
}
node {
  name: "FCN/dense_2/BiasAdd/ReadVariableOp"
  op: "Identity"
  input: "FCN/dense_2/BiasAdd/ReadVariableOp/resource"
  attr {
    key: "T"
    value {
      type: DT_FLOAT
    }
  }
}
node {
  name: "FCN/dense_2/BiasAdd"
  op: "BiasAdd"
  input: "FCN/dense_2/MatMul"
  input: "FCN/dense_2/BiasAdd/ReadVariableOp"
  attr {
    key: "T"
    value {
      type: DT_FLOAT
    }
  }
  attr {
    key: "data_format"
    value {
      s: "NHWC"
    }
  }
}
node {
  name: "FCN/dense_2/Relu"
  op: "Relu"
  input: "FCN/dense_2/BiasAdd"
  attr {
    key: "T"
    value {
      type: DT_FLOAT
    }
  }
}
node {
  name: "FCN/dropout_3/Identity"
  op: "Identity"
  input: "FCN/dense_2/Relu"
  attr {
    key: "T"
    value {
      type: DT_FLOAT
    }
  }
}
node {
  name: "FCN/output/MatMul/ReadVariableOp/resource"
  op: "Const"
  attr {
    key: "dtype"
    value {
      type: DT_FLOAT
    }
  }
  attr {
    key: "value"
    value {
      tensor {
        dtype: DT_FLOAT
        tensor_shape {
          dim {
            size: 8
          }
          dim {
            size: 2
          }
        }
        tensor_content: ";\374\026\277II\n?1\317r>\010P\317\276K\257\017\277;\266,?+p\211\277\372\0005?T\324\346\276\312\026\006?\302\010\265\276.\255\005?\220s\266>\002i\211\276:h\033?\317r\307\276"
      }
    }
  }
}
node {
  name: "FCN/output/MatMul/ReadVariableOp"
  op: "Identity"
  input: "FCN/output/MatMul/ReadVariableOp/resource"
  attr {
    key: "T"
    value {
      type: DT_FLOAT
    }
  }
}
node {
  name: "FCN/output/MatMul"
  op: "MatMul"
  input: "FCN/dropout_3/Identity"
  input: "FCN/output/MatMul/ReadVariableOp"
  attr {
    key: "T"
    value {
      type: DT_FLOAT
    }
  }
  attr {
    key: "transpose_a"
    value {
      b: false
    }
  }
  attr {
    key: "transpose_b"
    value {
      b: false
    }
  }
}
node {
  name: "FCN/output/BiasAdd/ReadVariableOp/resource"
  op: "Const"
  attr {
    key: "dtype"
    value {
      type: DT_FLOAT
    }
  }
  attr {
    key: "value"
    value {
      tensor {
        dtype: DT_FLOAT
        tensor_shape {
          dim {
            size: 2
          }
        }
        tensor_content: "5\321\237?;\321\237\277"
      }
    }
  }
}
node {
  name: "FCN/output/BiasAdd/ReadVariableOp"
  op: "Identity"
  input: "FCN/output/BiasAdd/ReadVariableOp/resource"
  attr {
    key: "T"
    value {
      type: DT_FLOAT
    }
  }
}
node {
  name: "FCN/output/BiasAdd"
  op: "BiasAdd"
  input: "FCN/output/MatMul"
  input: "FCN/output/BiasAdd/ReadVariableOp"
  attr {
    key: "T"
    value {
      type: DT_FLOAT
    }
  }
  attr {
    key: "data_format"
    value {
      s: "NHWC"
    }
  }
}
node {
  name: "FCN/output/Softmax"
  op: "Softmax"
  input: "FCN/output/BiasAdd"
  attr {
    key: "T"
    value {
      type: DT_FLOAT
    }
  }
}
node {
  name: "Identity"
  op: "Identity"
  input: "FCN/output/Softmax"
  input: "^FCN/dense/BiasAdd/ReadVariableOp"
  input: "^FCN/dense/MatMul/ReadVariableOp"
  input: "^FCN/dense_1/BiasAdd/ReadVariableOp"
  input: "^FCN/dense_1/MatMul/ReadVariableOp"
  input: "^FCN/dense_2/BiasAdd/ReadVariableOp"
  input: "^FCN/dense_2/MatMul/ReadVariableOp"
  input: "^FCN/input/BiasAdd/ReadVariableOp"
  input: "^FCN/input/MatMul/ReadVariableOp"
  input: "^FCN/output/BiasAdd/ReadVariableOp"
  input: "^FCN/output/MatMul/ReadVariableOp"
  attr {
    key: "T"
    value {
      type: DT_FLOAT
    }
  }
}
versions {
  producer: 175
}
